module attributes {tf_saved_model.semantics} {
  llvm.func @free(!llvm.ptr)
  llvm.func @malloc(i32) -> !llvm.ptr
  llvm.mlir.global private constant @__constant_10xf32(dense<[7.181700e-03, 0.124157019, 0.00412614038, -0.0417375043, 0.00435825391, 0.0512004271, -0.0102130286, 0.069350414, -0.138754129, -2.664860e-02]> : tensor<10xf32>) {addr_space = 0 : i32} : !llvm.array<10 x f32>
  llvm.mlir.global private constant @__constant_10x2028xf32(dense<"0xC9598F3C14174ABD812CD03C745A79BBF3FB3DBCDFC0043D72A4F83BB924203D5D57693C8CCE683D731AE4BBC9E86B3CFC9C3EBC818277BC3CC5ADBCF1E72EBC143438BC498CC8BC2D05893DEC4C35BCFC700D3C74E2D93C364B423C74D940BD5497E9BDDB5BADBDFC05F1BC532F1EBD7B3A95BDEFA5133D1FF055BDE5C763BDFA6ACEBC414664BA46E2523ADD5377BDA69BA4BCC32DF0BD7AC3373DDA25E1BDCADC87BD8915A03C03067DBD6E40E9BD5E7DD5BC996B523C62BF223CC27B4ABD5BBA03BD5ECED7BD8C163C3D6D1BCBBD5BED10BEE2E924BD3B451DBE0B9B64BA89BF12BD617F293D7A71BFBB3B07CBBD89A26ABD204649BDE003543D5B53A2BDA128EBBD551B95BDE4556DBD2120BDBD237E4BBDE489413C0E05A6BD837609BE6B621FBEDD06C3BD9F7A663D0C47AABD4409D7BDF6ADABBBCE629EBD2C52BEBD2B7679BD9A6D623DB1F1CEBD9B6155BD372062BD805CABBDB91FC93DF9F99FBDCCD902BE6CBC71BD42C630BD271252BDB096AEBD29401B3D5F3DDC394968B7BD9C19B4BD7A6BA2BDEAAAB6BB6AE2B1BD0D020DBEEEBAC2BCFC8C66BC4460C1BD38780BBEF48D513D303B89BD8939C8BDEE8246BDF4C0D8BD56C600BD32780EBE88CF22BEC5E8B2BDFF2DBBBD52EB38BED88A06BE694F07BD075BBC3BA94725BE9CE3B0BD5AF2E4BD584962BC2453E9BD8AC5CFBDE87256BC82A2E7BD1C7072BD302682BDDE2235BD1365F0BC2D5CB6BD81D67ABD80E8B3BDCF19A73C9B5BD5BDB1D86EBD7DD15BBDBAB305BDBA91E6BC670318BD6AC20EBC59F4D43C339D32BD3EA893BD7ACF6B3C0239E03B267E5ABD2FD9FB3CA85F503DA3F88FBD6982BEBC65901A3D507EA03B2C9D7C3C750DC3BDA42C84BCB5D36E3D0742833DD3C864BD24C4C23CD53FC3BB669FA7BCABF9A5BCC07EB73DE9DBB43DA2EF86BCC1DC3FBC2BB517BE8567BFBD347037BDC56950BC166F38BC15B2A23AE9F5C33CC3F00EBE80989BBC6783C9BCAF91A8BC746BFBBD6BE707BE2B4818BE6F1BB63C163F53BE6BECAEBDB70E90BD3C2A4ABE3BB68BBD8307DCBCF2926FBD07BC04BD40840EBE79A39BBC4160E53BF5E703BD00CD6DBE1229D3BD6B1660BD05FAC8BDB58F94BD9E3830BD562508BD758B7BBD5207353CA8E5B43C5C4FADBD855414BDFEF315BEB110A8BD83743B3C4B50E8BC7747B1BCEB333ABD43746ABDC24D85BDAE749F3C6871A4BB9F8009BDA7C3F3BDB137A2BDCC8D45BD1FA928BC3DB72CBD443875BB24F988BC5821A4BD62037DBDDB8C9ABD70ED4B3DBFD30CBDB5D3A7BD1FC22FBD64690DBE91E8BC3D370A1CBD952F8BBCBF2EAC3CA99AE1BC028E683D41D14BBDA999CFBC938BA8BC02FDF3BC137094BB1E122EBD0802A6BB1A9320BC71798DBC0EEDC5BB263D6E3DD6AE3D3DEA0F86BDA2E4AC3C24C62B3B1AD65FBDBC42DDBDB884D1BD2030FF3C00B56BBCA73FC33C4CFF2EBD8C37F53C44A3B4BC29C59B3C8DC802BEE77BB3BA1862A1BB2BCE4ABD94B5D3BC97E00F3D0E4EC7BCAF211BBD29C05BBD88AE2CBDFAD285BDDBDAB5BD581F64BD900330BD5FABDEBC0AD0B9BDE649C9BCAE51853CC6392B3CA125533CF354E5BC52069A3C4AEA473DA7E010BC0FAFABBD4B70DBBD803C973C848BB8BCDDF799BD3A96C4BC9E5CBEBC2B3554BD423D89BDDC95CDBC695E28BC624853BDE45A21B9AD89AFBD35FD96BCBC4BC3BDDC71E3BDCE3AD2BD151303BE6916B6BD7A2F91BDCF690ABD324FF43C8E46F1BD18699CBDCC4537BC736638BD6FCB61BD1D91EA3C7D94583CFF252A3DACAB083CE2A1163C15780BBD1D3153BDB21690BDE9D114BEFF74E4BD59142CBE9A92ADBDEC0FC9BD0808693CE54604BE1EE4BFBD61BA90BD90612BBE87301BBDB355F3BD17F5B9BD53C7D1BD15F137BE62D620BE1F692FBD83EF66BD05E9AEBD7125B6BD1C90C1BCCF190EBE05CD73BDACA994BC9713E0BCA2EE18BD161D28BE047F23BE9FD81FBD9B5F41BD772DA9BD88019FBDBF4C603BC7944DBE53BB43BDD7D3D9BCD393DABBBEF648BD25A63EBE68091FBE4B2C29BDF50D333DEAFADCBD8B7F133D21913F3CDFEC5DBE49ED59BDCB21373CBF7D033C64C7523CBFC26EBE4E55E6BD607AB0BDED68A1BDDF27BBBC28BA0C3D2AACCBBD7562CDBD8E31B6BC35D4BDBCBA3F6EBBC9E0903CCDBF00BDCA010BBDA722823C193B683CAA7380BD7522153C155456BD67DCDDBDD8F7BBBC6A8832BD341F3A3C4A876BBDAE761EBD64156EBD7596FCBC7CFB6EBC3B965EBDEA12CB3C589757BD17BE453D80D2D43CC6D5853C9CA74E3C5388D0BC3983643D28CBB9BD07CFA0BD0F75BC3DD71278BD9F5D32BDE56212BE8E1CB6BD8479DB3DD7258EBC1983FF3CA17D5F3CFFFC81BB32FE3CBDEA1E86BDB572123D92C4823B2DF77A3C01D2ECBDD21B86BDCE6B9E3DDE94E1BC225B283D6B6C33BBB71B12BDA9F0C6BD19F00FBBB147A6BBEE8017BD40B08DBC11BFE2BDF628ABBD0F5F383C31A5BE3B65ED06BE95421F3DEC3DD5BDC047D73C8528D73A974AC13CAE5C8BBC9D096DB91B2B98BDF68C92BCF6A9D8BDF6F757BD133B22BE77A5D9BD2F493BBE50F18CBD997CDEBD35AB81BC1CAC3DBD5B45F8BD45C6B9BD900912BE1A29003C5AC33FBE96D4733D60E2EB3C9D9CDE3C745D703D00F163BBD699B43B8F332DBDAF2FFDBCA358DC3DADDF263DBF3A25BD6B1E823D81D9BEBDE01680BD832CE6BC74B029BB1766B2BDDC0E263D260908BD2BE563BD4A8563BD8A9376BDFB43D4BD740C76BD7A4178BC0672B0BD131F8ABD069330BE68D386BCC1B686BDEA6621BD2F68823BA9D97FBC204BA4BD82045EBD22823ABD809465BDB21436BDE24E18BEE85CF8BD1BC0CEBD0A3D3BBDAE4EA7BD939921BDF265423C5F1936BE3FED47BD9A1DC3BCD6E936BC5CF5643C9D4C2CBE132F90BDFA7D6E3C9A6DCEBC84AB8E3D2BF7DABC36640BBDC41211BECFDEB8BBCE671ABC2A70C83C6BF93ABD2382AABC8CB4823DC69B3CBCF5099FBD1D8D53BDC78F893C2D24B7BD8DD3AABD2FC799BDAB3464BB7955AD3DD9D7503DE90A40BD18C45FBD6C6B823DF21C0EBD41292F3D66652A3D39DE873BD2E3C23C6C1CF5BC9C92603DB74CC53D7292353C35FB4B3CBAD93FBDF085743B8C85233D9A9377BD7E7A063D2F9150BD21DE843BE984B43CB011AA3D5794FD3DD6F09C3DA1AEED3D37CCF83C16137F3D0607A53D9F58203D98C33F3DB7F13DBEDBD3713DC432093E4D2CAB3D8B2FDF3DEA8A0C3D9AFEDF3CCB2D29BC82D4493D6865D33DD128813D606F493D4F9794BE28AE24BA4D95193E934B893DA2B1043D94DE8C3D0B90F23CF966CC3C978B523DEA47583D7E03613DB8C19C3D1B689EBE330B0BBDB1C51E3EE3AD7F3D5161733D08CB7C3DF5DD15BC047F2A3D1A59CEBC6AF76F3CDDDC853DFEBE0ABD39D8A2BE536F3DBC20701EBDC795043DF1A7FFBDD127F3BC6C7E08BE58A3E7BCD2D2C83B6A2B5B3C4C0928BC8C7A8C3C619BC9BDE7F9CABD5EEA453D33C9B5BD71D3953D4F3895BCD87AC93D07AF9E3DB1D1733DBFA1873D36286F3D6B1D923DF77E663DB90CCC3DE75EA03C3F581EBC4CD08EBDE4F789BC468F00BD89B1C3BD17D984BDADBF113D5EADFCBCCA1D063DD0C5093D695234BCC6099FBD20E0B4BD5475E7BC8E32463CD8BDD6BD5605B0BDBF06A7BC8C876C3D71B5A6BD291CA43C8565D63DC4A109BE7D05E0BC264B34BD366DC9BCEB96613D7A9C72BDBA11FC3C8543093D69EFD8BDB7DC5ABD13C1B2BCA68A8BBD36BB9FBBE27F6ABD5ED5B73B247F65BD4C6C683C8402A8BD28C38F3C27C039BDC305FCBDB612AABCF642A9BB2711203D3E989ABC7F23AA3C8704B33CE02C2538B930473D571A74BD50362ABDD61D503D72AE51BEDE00223D18E02D3DDC73CBBD1E770CBD54B0493D3FF6C33CF711763C8425913CC642BA3B3AF51FBB41F879BCC7AE8EBE8A11403C93D30EBCAD987CBEF20F0BBD6B109B3DF189FB3CBB4AD33D1B3FCABC8690D7BC8EA586BC7254003DAAF4A2BE73749A3D2504B9BDC447D0BE31AD823D39FC143EA8DE2EBDB5B6EC3DFC32543DDD290A3D21C0A03B90852A3D4CF825BED4F59F3A44CC8ABD6071C7BECD8539BD542E353E35876C3A0C1A0F3EBEBA863D0043083C3E29C13D4E440F3DC16CC9BDEE1D8A3A7E78373D1606B9BEB28158BD5818513E15A7043EF194B73D1D7F183D99CFB0BDBBECE03C8798913D22C4923D92FCFABCC82D943D3ED598BEBE4ECBBD82EA5A3E5D7E293D61EBD63B3204913DCE2F84BDD363D93DA280A23D9FF15CBC8325713C95E38A3D6DBD62BE7C07FCBD7E32283E827AC53D56B534BE9D2C82BD9F9398BE9811273DFDC7C7BCE6E911BD5F16AFBC294264BD3BA1EABD6E8828BDA708E13B26EE5ABE1797E83CE5E0B0BDAD36223DE15B553D27D149BC1F03CE3C018D7D3B8DCA33BDEBE82DBD7C5FA33D6796263D15FB343A5D071DBDD7D39ABDBB4C67BD83ED8DBDB73C01BE7A48953D34ABA8BD75A7A8BB878E9E3DABA2B6BD3E5EC23C95F26CBD5A585D3C387B843D5E6C0FBE01CC853CDAAB693B63048B3BF78B103D1F8BA33CF5D2A13DB36707BEB0A9EC3D8D960C3D7BAE05BD9160A03C61A643BEC966503E8D7A23BD29D2E03CCB3B893CA47E373C504B4E3D7BCBB0BDAFD596BC1291CABB7ECE1EBDA5D8E13C3DB0E9BDCFF1CD3D5A4A513DA38F05BE6403873DF5D9D1BC217F0F3E28F584BD8B15AE3D59F2743D5AC34BBB620010BD5D48F3BD2F4EB43D43DECC3B7E9432BE6C77283D3A2660BD7123E9BDCFDFBBBC0ADF033C692E3FBDB8519FBCBC8FEFBD2DA5CDBC698E263E3268BDBCBB3DB2BED5DF2F3DF2CC13BE377ECEBE14BC1DBC992A4B3C555555BD37715CBDE5BD3EBE10C6F83C99076CBB021F0DBE333707BF6245CABDEA4844BE9587ADBE80B29CBC2E865A3E1592CABDF73A123EF182ACBBFFD70D3CF8D35ABDE8A1B9BC5782C6BEFAF937BE4E57B0BD1DA293BEAEBE02BE028E4D3EC348D5BC27CBFF3D9DD4803D06230FBD3BB3CA3DC399433DD23755BED32D4ABD5BAE8C3D7B997FBE0280C3BD58C53B3E432EF23C53D4B23D2EB36B3D6B45B4BC402B033ECDCA7E3DAD4EADBDECB05C3DCBD8A03D62078CBE97238ABD0E31983E7A79063E1882AC3D77E4663DF368F6BCB6A42A3EF9C47B3D892A9F3D1228AE3D9DA3F93DE5A83EBEC29A88BCB4B1763E7B45F53D0C064ABEE0F4B33D7DFA51BE3C83943DDAEF2F3D49AB293DAA27D53CCC44C83DBBAAD8BDBAA4483C5F2FCBBBD599B8BD8263DFBC3676DABD4B3299BD35159C3C3EF013BD9619063D370A4EBD76D100BE885E88BC983463BD1E1512BD8909B5BD02CDBE3CB701DCBCE93C80BD6BFAD6BABF2BF0BD8FB7713CDA595FBDDF3F2A3DB609383DA6A4F7BDAF7C9C3D4A4CC63CD555183D88F7FA3CC5EF22BED231E03DC4FEBA3CE78364BDD9D3F03DCA9E093DD6688A3D057344BE1D15EB3DEACCB83D4AA2A03C77F7D43D081E46BE4211483E3DBA193D651CBABD024A0B3E1A9BAD3D9A4DB53C5F7E12BE9870B93DE167C33D420420BBF3D4873D40580FBE5FE5003EEB618F3DFC1CE8BDAF686B3D5D6BE43CC180C6BCCCF762BDA648293E1663653C2EDB75BDF808D6BCE30827BEE609423EF9CB833C8F1CA5BE434BE23D99D9FBBB4DFD87BEF94198BDE55D513B20A162BD1D0E2ABEC6E80EBE54C624BE4DF14F3EA26006BE3F1BBEBEBB6077BD272619BEF2A49BBE79B6DBBD1A71A8BDC46E17BE29B85CBE0DE64EBEEE6100BE65C237BE975591BE88BF6ABEF44495BECA1343BE041922BE5F0182BEBC8E6C3E0C2A03BE5E9C653CA7E4D0BD9627F2BD45CEEDBD5B4F09BE3184ADBE13D40BBDCA6E69BDC03005BD879F40BE0E37703EDB5085BDFB9F343D499ABA3C0277523C3A7D933DA4A823BDE9DF53BEFC3A59BD7688913D7C0C54BD7B40A8BD409E133EEBA9923DB4FDBD3DC6A01C3D5F3A08BB807AA83D627B8F3DFE1107BEAF1C8F3DEB4BD83CBBA95DBC903B283DA2A7993E9D0D353D2AEFE53D6D6DE73D16FE5CBB98060A3EC92B133E4B06B0BD6F5DB43DE003973D15EEC1BD3E1339BDE973353E3811333E115F35BD6BDB093DBD0EEDBD07FDBF3D2F178C3D427EF7BCDB5D113DEDA6593DAC05E2BDF3F0A33DCE80DF3C47E38FBB620A82BDD49C13BEF0FB62BE700ACBBC6D05AFBDAFB52ABDE53511BE6499E8BD0036ABBD10CE27BED3AE86BDA0812BBE082A15BD5BB87B3D22248DBA9A39B2BCCDF090BD45683F3CED087DBDD9027D3DBA84073D903217BD137BC33CC612373C6F1B3B3D87DCB13D0400B93C3EC4043E7D9CA1BCEBF831BE840BC23DC4B67B3C6C7D6E3C024DA6BC1B818F3DF542BB3CA337583D0E1E223D43A09DBD351B413E18F2923DC4458FBE8E98013DDEDEC23D61BFC2BD49CA39BD14F3153E830C273D5C9E0C3D3156CC3D8D5144BE436FA33DD337C93D1C86A9BE2A908A3DDF09C03D3EB336BEA23AA3BC19958B3DBF1E353DD6954F3B4319FEBCE3C837BE7D7D813E7E9D503DEBFC97BEBE07963D0490CD3B56934DBE742C273CCFD057BCC648B93AC1206ABEAB043BBEA36F81BE20598A3D72D055BE9A6421BECC8148BE056510BE119450BDECDE57BEA8A229BBD19877BE25AE14BE7C6CA6BDB9AFC4BEBBDD2ABE306110BE31F83EBD976F08BE41E194BD5FA7BF3D8FE09DBE084AFF3DE81165BD0218EDBDCA6180BDCE723CBE4314C9BC883678BD5866DEBDC3E9AABC2750C7BCDF860E3D8FA88DBDA40D193E82278F3C98B930BDE2D02A3D50D396BBBA4CA63D6ABF47BDC41557BE3DCE433D71FA463C232BB63DCB52023CD8FDE13D105A6D3D014E963DC5FDCD3C84A5DEBCE92C3C3D08F7D63D999C3ABE5A01493DE299643CBB7323BC159B75BC956F293E09ABF03C91BE743DA8B2913D049A203D9AB61E3E2E9E003E18A36FBE16719A3D5416BD3C5108F7BD1F5CDF3D9491803BCB24E93D3A581BBD8CAC7D3DA7EF96BB9D1ED23D36211F3DB34CC5BDD32DCB3C258E6ABD48857FBDD611283DC870583DB88BC2BD594E7FBD11F50EBEA6B20DBEC429B2BCFF1D0CBD720E3DBC5D6BABBDCD6C37BDBE373E3CB4CBEDBDCAD4A1BD1A27CDBD3FF3593D24FC2CBD31C5153DE98625BC5FFE81BD8D0690BD56F9203D44F3CFBB9BD8F4BCD271C73C2D4C8E3D1454B3BB16E9783C72929EBA7E51FE3C5D7C903C7E2FD53C1ADF48BE14516ABD90E6033DEC6E42BE90E778BA3CF9BD3C85E3473DF5835C3DF7EDC53DF6E30EBD46D2003E5890B03C61D064BE8A848C3C0AA79C3C33397FBE4881BEBCBE111B3E75F6A53DD0EA533DEA1CFE3D78D0DEBDAE85D53D7B6A213EAF6969BEB2F7E23D03C3683D39C340BE66CBA5BC9437D83DBB8AC73D778884BDBE7221BD7D1599BEA030543ECF76113C66D22ABD2E8C7F3D7857973BEA8D8FBDE3CBA8BD4A637CBC23B161BDE86F78BEC4B1A7BD21EB84BE5ED7A63C9331D4BDA882BE3D71A7E5BDBB9242BCAEFB10BBC2954DBE3A02003D37921DBE19C138BE7EBF9CBD197823BE4ED550BC6EA0BBBD244D933CDE885DBC991A71BD2CFC853DBF2D2ABD1233833D0CF4B3BD6CEC9CBD03CD0D3CAD1F9D3B2C22A83D9BEBEBBA431B02BE05759FBBC1DFE73C2973013E1DA8893C8BBF93BC49D9833DA40100BDD46028BD99A1DB3C2E6AB63D04E5D73B6FCF1FBE680D873B3E92593C44244B3E0E43FC3C98CC0A3E64D64FBDCB465E3DEF3A823D81DD693DDD72B43CD900EF3C2F2858BE7130893C6821BFBCC333A73DF3597CBCE9D4BD3D0BC4B73CA122BF3D8D0CB73D0F418F3D608ED33D9994963DE3976FBE9666B33DB38B6A3DEC75FABD34CB483C9B47CFBD21BF1DBCF0C184BD279727BCC5F210BC487950BBF9A023BC6996A4BDE18749BD797299BDAA9C1A3DA65A0D3D6EE1923D5CAA01BE91D664BDECE6CEBC089EA8BDD4641F3D927614BDCA97313D4A5F05BE2B51DA3BFC2D2DBDFB42A1BD8D2E4BBC6097CBBD16EBF0BBD82A853C9A5932BC59954CBDE11F3EBC4FCAD53CA80F9BBD10799C3C8CBB1B3C6401803C3C8E8DBCFE3D103DCE4A583D9D63733CD38FD33BE3BC9A3A5E9958BD7B7943BEEDEF9BBD84E71C3D13DD1DBE70B08ABC3ADEA83B764EB23C9EB79A3D9EAA753B10F457BDDB931F3E630705BD2BEC52BE1535A53C3672083CD11F69BE37AF5D3CD1C7BE3D5CB193BC177FF73DDC50D53D25918F3D1937DA3D49D5593DE162EABDF27BC13D288A783DB57723BEA8089A3DB97D4F3E9B32983D6252B53BF689BB3D7D357D3CEA18733ED5A31F3D22FB7E3BDC04F63DBE71043DBA7635BC8675303DB6C9DE3DD424B43D111FF8BDD66804BD4DC5C23CD9CEF23D0209903C61BEB83D0031C5BC0585413D0DE18FBCE20400BD80D802BE0B4E8EBDC16496BD9A6357BC0FE88ABB3692893CA3612ABD0406063D9A65A6BCFC13D7BB5CE10B3E6D9CEA3ABC0CE6BD54AC59BD90A4A6BD28CD9D3B6949A53C59014ABDC8B57FBD960A95BD54C4E1BC756266BCD3ACAF3D9FCF5EBCEB26B1BDE9FA46BD1CDCBABDD947ACBD2BEE5DBD214446BDFEDA62BDD9A11CBE9A0539BD001162BCD215373D0192043D02833EBDFDF247BDD5FA37BD8373E2BBDF973ABD2B40A73C03C40F3D38791FBE438A053DADF50DBDEFFD29BC493A463D97A635BCFBA4B7BCDCFA9C3CD67A6BBD963210BCE8CB6BBC217E3BBC4BBF22BE0CCA5CBCA590B5BD9F60CFBC9D641ABC600738BC8CA4BDBDC71FFEBDFB3445BD3E9B72BD323AA6BDBDF9E9BDC4FC8CBDC6CDCABDBBDBA7BD156853BC12407EBD2BB7823D842BF1BD714502BE8561AFBC0C113C3C098A813DE9FF00BD16FA61BD1A15AABD1A199FBDC0D747BC6958FE3BEAAA70BCE5594CBD939D8F3C9B211FBD6124833D4D2253BD06160EBB2DD358BD64E3723C5AF241BD9C65F5BDAC7710BC2B5A07BB9E57B43B29F41B3D0A6AC03CA01A7EBCD25C67BDBD63D4BC7AE59EBD052E63BDDC255BBC526A5DBEE2D2143D85A1BA3D558A8E3D443A123D4E7DA13CE2F44ABDC450B33C2240823CEBB08BBDECB79FBC35FE753CBCCD84BED3A76BBD58D0E4BC848C9E3CDE30123DE76B363DA75A5A3DDE130D3E5491AABC63E50BBDB11594BCFDB48FBB6C1145BED6405BBBFE14A63DF7A3793D7069DB3D39C9943C20D7F63D8793963DC125B73D8C0D7C3D0FC4683D17889CBBFE64133B6F62893D3D6F493C83B49B3DD3CBF0BCB717223D958B753D226B10BE8FBD313D29EDE13D911D43BD5CEBF43C3701143E305197BAFE3694BEE9F6F2BC5847D4BD0C459A3CF51179BDC9141CBE92C9893C52FF9C3DFF2F233B4A84CD3C338D153E9DE719BD682685BE951112BC537D03BEC5B6B6BD667F85BD38B096BD52D163BD0796DC3C8EEF0B3C0DCF8E3CF5120E3ED8D58BBC8D9BA9BEDCB28EBC96B10ABE8E2AD1BDD701AFBDDAE8B4BDDF4894BDD25DC9BD33B588BD5BFF9EBC3BE7293EA07E94BD815D33BE9FB6A1BD44B51EBCA900DDBDA22389BD062A1BBDDF9DA2BAA4902EBD3ACC8A3C11A2C2BD0FD9F03AD7C791BA2AC4B1BDE52778BDBE94A0BDD027ECBD4BE128BE2B2FF0BD85F657BD8ED069BD46FA31BD2C95BCBD486D853D6FAFB73B987F08BE0AC70BBEC50FB5BD22FF39BD8E774CBDDFDF74BDDEA206BE4245693D9EC457BD42A2A1BD0B3308BCE4AA6FBDB23CAE3CE8C81DBDD4D67DBD152A8FBDCD9875BD74D019BDC4ACAEBD6425863B17B1A9BD3B9F84BDCB90303DBF9EB9BDB99D3FBC0834B9BD7CF2C9BD6176D7BDD97628BD3689F0BC6832C5BDC9BF853D64211FBD25A5D2BD73EEAF3D0F955DBD5D85A6BD528528BE8D3143BD51819CBDD9CBD83D166529BE6102883C0065223D8C60E7BA48E2F3BD64DE20BE7196793DB090453DF06745BBECEA9C3CCE1452BD04E02A3D57A6C3BDEEA932BB884C2DBCDAA4993C4B84E3BD29F264BEBA5EC13D68A2613DC3BF2CBD686F0C3EAB68073D57E31F3D3CDA2CBCFF0105BB895281BD43A6DE3C643CC9BDC58778BE6D11FD3DA42D0A3C4EBECB3CD9B9913DDE6B2D3C2C4E833D74DC13BDD70A663DFD1E853D4F592FBCB0E9E43CA48C6DBDFBE2DC3DC5365B3D1C38883D852BA83D99F74F3DD33EBA3DC49EBEBDB43B1A3DC7511C3EA55D06BD3D92693CCDD5583CC8C6763D875F16BE2511D23B5990B3BCA42E77BC6C8CAF3D2A5419BEC1880C3DBD8CF63D6708FFBCD1D8243DE807203DC75A1B3D589EB4BE9B9D44BCB5999CBD91D493BD9EE52CBDCC34C6BD36F573BD08AB6A3DA6FA2CBDE72086BDEA9EF53D491AFF3B64E3B2BEDA9E62BD3F0F7EBDA1EE18BED003DEBC927117BEF4C110BEA0CCCF3C67A312BDE445B2BDAA7CAA3D21289FBD51D314BE10AB04BE87EB06BDA9601DBEFBCD95BDB2AB32BE252718BE2A48DF3BA914EDBD14024FBE5AEC9B3BC39230BCF8BAADBD5EAEFBBD9E789BBD19B6C0BD644574BD15D484BD0911F9BDA4DC133DC40623BE016829BE433BD83C8C9977BD4DFBDBBDDD29FDBD162595BDFAAD29BD731264BD1056CABD684702BD8E8AD53A2D9905BE86D49ABD6711CB3BA30857BD43F48EBCEB33A6BC6FEFE8BC774C22BD25214E3CF3D8913CA8FC30BC3874683D37C128BDE6F03CBD6C86223C2EF849BBB5EEA13C699A02BDCBCDDBBD52C6FFBC938A84BD45F89CBD7FF340BD2971CABCB641A2BDF4A24BBD9089E73B7BEE01BEC8C8083D00D5F5BBEDC01FBE494B16BE77AE9BBDA48AADBD5C3CF7BDF8A17F3DAF04C4BD15D9D8BD2F08D93C4241FDBD679443BDC5E30DBE10720BBE74954CBE53E803BEE72CDFBDB0DA64BE73E0843D84C9E9BD3AB02CBE34039ABD4818DFBD09F5DABDFDE64ABE020FD8BD460D5CBE110AA2BDF29F7DBE2FD17BBE19EFB03DCA73E8BD50632FBE585BB13CBFC71EBEF0039BBDCB3661BE6FA70BBE579795BED4138FBD5CB7A6BECAC260BEA691B03D8D8181BDAD2699BE6A85EDBD5B7E6EBD408A68BD23AC2FBECEDC5ABD9B1489BE7BD4DF3C607C9ABE75EA61BEA5648D3DF4C625BE52F386BEE9CAD7BD89C703BDC2F2C8BDDF1287BED3104EBD282683BE310328BCCE316DBE0B146ABEA753A83DD0D797BE313862BEEEAD23BD18A08FBD45B613BE51AC89BEF100F9BDED7144BE82FAFBBD794183BE32DB77BEEFA6473C7D673DBECCD234BE3375053D629509BED1B8F8BD02CA13BE6EA874BE578667BE603C18BE81C57DBED25561BE69EF293D291588BEEC7032BE54A425BD41C61FBEDAB9B9BD6A0B4DBE912E53BED4665BBEF9C02FBE65FD81BE9DD051BE636A413D84C806BED31B24BE28C46CBDAD0379BEFBDB01BD669AC4BD8CDF20BE6BAB1EBCA6C004BE17B6ECBDCE0260BD67D6693DB13FCEBD49F5DABCBC46843D3FBCF1BDCA4F15BDDECAC2BD0928BABDCAA7973B701791BC69FAD9BD55FDF5BB371822BD35FE21BBEAD280BDAD8BB53D43DC4CBD44A3D73C7E7F02BD450C4D3DB710643D6DF5993DBE6B9C3D5F7DF3BB0C5A493E85825B3D3CE1393D7493543ECC8BA83DA1580B3ECBA8963DBE00883C7CBC603C1FDAD93C2EB3A53C7B4A783D468A0D3E79199F3D7F786F3B92253C3E570C073D798B183EB04B383DA2DEA8BDDE500A3C9657A2BBE90D5C3D2E8F1A3D6DAF363E811DB9BC411932BC7A79F93D85559E3CF72F2E3E79A5F5BAEE20DFBD366BCBBDEA842F3D668C75BC127CBB3A7B6D183EAEDF0C3C96EBEFBDDC6ED83D965DF93CB814853D290502BE6939AEBDC6213BBEB95CF93C5C6CC7BCA82B8CBDB639473D6A09FEBD3CC256BEE438FCBD5B8DCDBC7696FB3DE7CD37BEB170163D6534C2BCC0E445BD916154BDA33CA23C88CEAB3DDADC8EBDB7D5ECBD86874ABDA84E1DBDC44DC13D6833B33CD732713D9CB762BB27056A3CC44B1A3E936DC23D399C913D23E1423DA84867BD89CC56BDD80257B9F855CB3DE92888B9A843583C9B12D13B39BB26BE071AEB3DEDD07E3DE7D37F3D9E22B33DEDF6563CABAFA0BDF4480CBE3C08A43D0D0D383DABAB97BDF40FD2BC37701C3DC019D43DE2A46FBCD581613DE216323C26A22EBD1588ACBD875CB33BC319223D36BBADBDFE32D5BDB51FA6BD65570ABC5AF670BDC4EFBDBD2306EBBA562BA3BDAD8CEFBDE10A86BDC6ACACBDF066213EBE11A1BD81699ABD2758D8BD92BA9F3DBD31A7BDF15DB6BDA63EC73C8ADE1BBEAFA516BE113538BD11F724BD3962143E1F4414BEFFD985BD01B2FCBDFCF4363C539B4BBEF03617BD6C93B93D828937BEAC7C23BE35B2D73DA5963FBD02F9113E05418ABDB39D253DF4C1D3BCC9F746BAC7EE6DBC55D9903CA874563EF48599BC42918DBDDFAF183E61853F3D78AE313EE2A54F3D546FBF3D7D770D3D3A3E913DD5B0903C23AC4D3D8DA12B3EF2EA2F3D471E8A3D3BD92C3E83D4CB3D08B22A3E707DD13D695AEB3DED04BD3DD0A5DF3CDF46EA3D3643C13D27DF3D3EC8FD1F3DBEF3EB3D4B07453EF771F53CEC716E3E12EA1D3D6DBC54BCF7DBC0BBDB1271BD3A3077BCCA20BC3DA3AA4E3ECB56183D6159333C1CE8273D28F39DBDC051083E4F4CE83B1E5A00BE186745BDFE763BBEDDFB0B3E64517FBD4275C73D9ED540BDFFD10FBEAD5F9DBD319417BE8DA61A3D770735BD08CB453C3C68A3BDDE890DBE4E17AB3DDE44D8BD3127D63CADF34CBDB4B904BE0FFFA5BD8A1F2DBE95883D3D848800BDFCC38B3DDCB558BD6E3746BEBE70383E8AD72ABD53E8E8BB9C208D3B61105FBAB90C86BDEA1C85BE6BED683E005219BD72780D3E23D3D1BC5D8397BEAD8C3F3ECBC5023DFD0E3BBCE2CB9D3D189312BD597A6F3C0BE86CBEFB38783E6B1D0C3D63CCC9BB17263F3D470D4EBEBCC26E3E5C75173D879705BC54F0B93D0C9A44BDCF901F3D546D3F3D927ED83DA90D9FBB987825BAD68B6ABCD42512BE040CB13D3BCDE63C1AFEB63B3F066E3D218C99BCD35B153D5BB799BD8B08593E0D1613BDCA419E3D5B1F56BDE97667BE813AA63B1E011C3CB531DA3C3BB9173C33D300BD8EAC113ECA796EBD0240873E2B46073CF0802EBDD052183D87B7B8BD6E77633D4B5BCA3CB69F043E0F3C803C60AC6BBC28B7653D740F9EBC8409243EACC81EBD79D802BD953E793C6FD2EBBD69D368BBE05D7F3C95880E3E9148933B5270BBBB9D94353D460D4B39F6E5123EDD74F0BC364AA3BDB3963ABD3EA4523C51DDC3BD1F02D3BD0141A53DE3DDC7BD2835BFBD3292AA3DEE69D0BC2423323E9AA6D4BDA44F183D46D948BD7EC0CF3D7A9B12BB70BAF83B6B590B3E0F54C63DEE78223D1FB8083EC44C083E28053D3E507E2ABD7075F83C0849C83C6E3A4E3D9953AB3C061B653D0DC8413E7D29C33DBEE302BCB306D63D5A10483DB1AD483E3736ADBC30A297BDD74BBBBDCD77A63C035E833B3D2D54BD1B30C73D29458C3B9D28A4BDF4AC60BD00E80E3D5121773C9DD1E4BD1844AABD129A78BD1D0AF2BCE98168BD8EBBBDBD8B2E1B3C2F7340BE7E5011BE2AB31ABE87D8FCBDA6B6BDBC7AD178BD2C39EBBCE0669DBDE47D76BD9395CCBDDEB627BE0FA3333C5A403FBEC82125BD7BC45BBE579D5EBE9B8A3C3D768D06BD2DE33D3DB1956D3CD1185ABE4A8BAD3D1B830ABDEEB793BD34E89BBD3F8098BD6F6E19BEC67780BEE8A9133EF87C55BDEF9A39BDC56617BDE38DB8BE8CF09C3D87075ABDD9C259BE0FE2A33CF7690DBDB72654BE7B078ABEA538073EA2F204BD9A1D16BD7D4B9DBD1D8FD0BEA598323E33CCA8BDD3F341BE75969DBDF1A188BD28DC5ABE05F595BEFA17143EB175AFBD56FE06BE404409BC7A81DABE33AF8C3D0C5B2DBD70B668BE09AFB3BD5540ACBDD0F373BD89F235BE848D873E077192BD3849DBBDA8AC993CB5FB9FBE9A286E3D0D14F43CDDA041BE64E85ABDC109653CB978673C6D9E11BDB515A53E4E2694BC2E2A90BDF66900BD55C71DBE91FF6D3D0900073BFFAAA9BCEF1D253C1D8B123D00A15B3CE46783BDF8966D3EFBE195BC05D5D0BC9F879ABD4F7A05BE852EA8BC5D9A4FBD5FF8203D7FC5CD3C575C19BD5C4E19BE574241BDA481FD3DE81582BC103585BD9E8A45BEE1B211BE78FD12BE0C8DA8BD5049163DEA7FFABDF25FECBD67CA553CC98CBBBDDF0B293E0532F0BD7E7423BDA4A837BD1C4BB83C1A5F183D4C3E35BDE764503E8A4CFA3CC81652BDDB461C3EF8FE4DBCDB56CB3D17CD92BD47E3A0BD859D11BE8183BB3C1C2BD93D84C7A2BDEA46C43D507F583DFB6ECABD28331B3DA4ECBDBCF181403D0BDA93BC9F04A3BD28758DBD167917BEB2D8E4BD2F2E74BD32FC153EAF69AEBDF091CABD859A00BC8CDE8DBD712E2ABD835B07BD2C7A5DBD64CC80BDC10FCCBD435328BEBDDC84BD5A622B3D51BDFFBDA3CDC7BC659208BE3E0F1FBE1BC0DABD03108BBD8E95CEBD36250FBD2E954DBD274360BEFC1A32BDE9512EBD1DEC4ABE7767F4BC855D17BE18FFD1BD8CDE303BFB2B66BBEB86E3BB7EFF9D3CBB1675BE2872FEBD3CBFC2BD03F320BE2FC40FBE39D153BD1E3D51BE097F6DBE2EFE9F3D72380CBDAFB41D3DF9A174BC55FEA9BE7277D1BD9A794EBD5BC0B5BD20BE28BE0665D43C56B46FBED21DA9BE848A8C3C08871D3D83EB0FBDA3866B3DB2C5FDBE85AF123DF848FF3CA06810BE6A45D1BDACDFCDBCAC727EBDDF4F7BBECA88783CA4EF6ABD95B542BE661484BCBC68EEBEBF12CBBDB58160BD8A7CA6BE832FD1BC3CF8B4BD1E0853BDDC942ABE838FB13CEF0D7D3B6EEDCEBD3535B2BDFE928FBE4C455DBD554880BD4F4671BE85A196BDB0F2B3BD868B1BBE39663CBDBF67B83B6C83F4BC4C0BBABDF0710D3C96B1BABD8FBB14BDF45A8BBBC981F6BDBFB59ABDCAEBA73BD81DF2BD4041B4BDB111143E6C77ADBDB9EB01BEFF87BABD815FF0BDC71322BD96ABAABD065D8DBDAF0A9EBDEBC04CBDB95C28BE05D9E3BD9B81BE3DDA34B0BD29A14CBEEA28E2BD68E244BEADE276BE931043BEF0A04E3D619E52BE1A3629BE085B0E3C148E22BE5D79263E3C0B53BE3C6D2EBD07B1C7BD8C9809BE3937653C8FA5203A92812B3E373245BDD7B26CBD7991103ED53BF6BD4512B03D8F757DBD0FF802BEF99C10BE9E1601BEECB866BDBE3910BEA96E253EF6AF24BE8545A6BD7A8EC1BB1B2E5EBE71F930BCAFCEADBD45A898BD8A45C0BCD464ABBC71CA10BE6330A3BD5F78A63DE91D513C2410F4BDC01BA8BDECB64BBD5E55D93A4E71C5BD49BE3EBD9C6972BC8FC5273C10A571BEDEFD3FBD9C9BA33D5E38F6BD77C934BDB87818BE4DE20CBBB29981BD0B84ECBDF0C64ABD644892BD17FBD1BC26A05EBEC5FAA3BC0BFFF23B531895BD08FEB0BC600D86BDA33B563A2C56733B4F7BA4BC5DAE82BD91BF3D3B5539AEBD58FD57BE449292BDE5F1EBBCDC8C16BE8C92F5BB6701F0BD5E4875BE9CD077BC037786BD4A5CA73DC9FAA63D0BD87EBEC3E24BBE505820BB20FE2EBD5A173CBEC3BFC93D14A56DBD93583EBE00FD9F3DB83BDE3D1137BFBB3F81013EBBCC86BEA9C4FF3CFCEA023E9BB79EBCCA5EC53C33B9003EB45C18BE1E44A8BDD42ED73C9BDEA23D1BD1DBBD37311C3D982E9BBEE113683C95FCF5BC684BFABD6754933BE1BD8D3BF2E2A8BEC4A8E6BD6D2D14BEA1A493BA737517BD35B839BDA30D13BEFA52753C00B70FBD37EFFEBD676695BD22E308BD79B335BE59EAEDBDADF44DBD9533B3BDE1EA9FBD8D578ABD86E1DABD47705D3C055008BDAA8D05BCA97571BCE58098BD651F7F3D31B5B2BDD0C5C63DA8A2D5BC790010BEFC4BE1BCBE6AA1BD595E8D3B6E9F09BEC43A143EC15559BD7CF512BD0C51513D054175BD95652E3EEE340ABE4CA740BEFA8C04BEBB9C5ABED12B39BE6DDB1BBE7573383E93A21EBE655FA8BD7508E93D376945BEB08F443E8D1DCDBD392188BD87DE9BBD985C8FBD6229943D18B38D3C3DB6523E9BCA7FBDE3203BBD08AB2D3E4E73BDBDEB34063EFC7B67BC967420BDE8BFA5BCC68E3DBEBAC7FE3C14DB54BDE538FC3DD7EEA53A551BB0BDAABD223E99F831BE58F8B1BAD017ADBDB70B01BEA0EB86BDF70E00BE9CC580BCC1A36BBDDBA5133EDA702BBDD4CBC7BD172D6D3D8B9007BEC8CBE6BCAF8E1BBE4641A4BD92B417BD12F241BD254E00BE9443E1BD1D72283EE045F0BD566587BD9FF93B3D3AB74CBDC7E81CBDFD6704BE204358BE732F6BBD8509863C6A233ABE2D81DABD899BD53BC211C1BCE91964BD80FCFABC1627CFBCA65980BD5135BCBDA26779BD49A805BD4F50EABCEB7977BE7817C2BDF6DB8BBCB822BABDE4D1AE3C99E28C3DBC2AFCBD87838A3D0B04223DEC3E233E4BC7A13D5144B2BD6EE089BD9E018E3DFF4709BE6EC48B3A1DFE9C3D9B4F11BD64F5FABD468E123EF94B1D3EB113D43D3FD40C3E42DEE4BD29AA773D7D1D3B3E9664F4BDD3AE723DF4AE823DD38DD4BEE0FC1CBB29D2943CA94C513D609AABBDCBFC28BDC72482BE785DFD3C78BCD73C040B82BEC9AE0D3D5D7E78BD8B69C3BECAD4AD3BE5EDCDBDCB71563C1B06A93C9E87CD38B6D591BD59F3E0BB91D36CBD0DF8CDBD588740BB4437AEBD48412EBE1452753CF2EFF23D1E04523B6A55A1BD7DA188BDF30C16BDB5A19ABDF5D857BDE944C73D82700CBC7326B8BDF33E3DBD1B0AFABC1C19943DD6E68BBDFC2B0EBE0B8361BD1D503DBD61C68ABD2AF480BD170B213E723076BD951B09BDD2279AB94AE8553B9A47523E9FB200BEDF05E3BDF20A2BBE61C91FBEB3FB38BE48ED1FBEC7A7323E636729BE0D21C6BD4E44B93DF1E510BED09B643EE9C782BBC8FA2A3DFDEB883D142148BDB5410D3D63CABA3D33A3473E11769EBD4A3AD73C862B123E0C603A3D093F443E0011F83C0B91F63C56C459BD618A7FBC52D3773D9972143BEAA2D23DE2B50B3D84E83CBD6322B43DA54BC3BC1CEBD93DE29B4BBD22F626BEA7083BBD98378CBD90AB8A3D382925BDB6CD1E3E45B364BD14107EBD1E1C583C7756DEBCF345DCBCBBAE08BD2FC28FBC7CAF05BD51167CBD342F03BE3C2BCBBCCFF8213E256480BD147B65BCED1AE13DBFE120BDE54F323D52B48ABD88D243BEF99A25BE5ECA2DBE93336E3AD3BE17BE20D8F83DCE626EBD0E1B7EBDECFA6E3C1CDB4FBD93EF2ABEB6403FBEF90E6ABC36E153BD806F3FBEF50AF6BD475120BDA6FEC5BBEEE48BBD5FBDFABB001BF43DDCC589BE4895933DD52B013D0332F63DB2DFE73DC45517BEBD64CA3DBFA9113E9B739FBE0154CE3D0C8E6A3D9251D5BD173F14BED12D4E3ED6F2123E6991843D0C10B53DE97F89BDA2EB133E6B93213E2D0568BEBB69AE3D69D4B63DBD72EFBE1DC4DE3C4055173DCC866A3DD0D104BE835F1CBD42EC5FBE803F2D3DCE0B023D9B917FBE15FD92BC6BE60CBE1D3F87BE28914E3DA6C68A3D4ACBA2BDD478FCBDCDCFE6BD575A1BBD36D25DBDAE1834BE91F34FBD1E2908BED89B17BEAD9BD9BDFE7886BD2EE03A3EE891EFBDB8B57DBD494E3BBE6325E4BDF5E1B0BDE6582EBE9084E9BCC86E96BD576918BE77339EBDB85DE6BD308FA33DDC441CBE0EEECCBD0E72C7BD597DBABD985114BE3E18FFBDDB44AC3DEC0D18BE9A163BBED52E073E5A8996BD8149193EF3E714BE50BDE2BD744AE3BD91F217BE53D80DBE8121E6BD1C88063E048250BD355022BDBC3C233E71683CBE8D82383E89E0ABBD57FDB93D9FEA6B3D5BF5F53D7B890F3E7F1DA43D643F353EEE45AF3D235DED3BC6D9403EC70DE53DC1902B3EEC00173D08A6BEBDD0DE79BDCCBF553C8D23193E57B692BD666AC13D77F96C3DA30EF8BD1F8E97391205463C94A7103B312CB3BD4E8726BE4E7FBFBDE260F8BD869EA8BD846F31BE15D85D3DA9DBF3BD0A632DBE24D258BDA5248FBC48379EBD9543C9BDE5E339BD2A8B12BDC740D33BB73E6EBEE63A3DBD1AE1AA3C6D577CBD7442B3BD7D062BBC04D6F63CE3CFC53A78CD40BDA522B6BD76B834BD001D29BEB436983D43B9EABD5B2DED3C3237D1BD8D569BBDDD2B723CFF5172BED552CEBD0B90C6BDAB0045BDD99821BD585A3DBED4AB06BED6289EBC564653BE05ECD0BDA782CD3C69113BBE9835F0BD6B67093E0F20B63D6D2CC13D83BAC23D4C2E28BD3622993D9595AF3D555C0ABF7994AA3C8443F63DBCC596BE98AA8DBDC26A643EFBD6FD3D22E9233CF0A04E3DE10A0DBE8269033EFEF1123EDF8EA7BE2D74033E06ED963C74DB8CBE8286D73C5CA1F5BC1E5A23BC918C4CBE1AD2ADBD4C6097BEB422B4BDA3572DBE4426EABD130020BE7C153FBE24BFE5BD9FB70DBD7FFA013DF4DB27BE425066BE917E2BBEB8FA4DBEFB9E56BE893649BE04D4053D440F38BE64C3E4BD8DB8BABCCB4886BEE764BC3D47844DBEDDF66ABEBA6587BD93112BBE3C7A39BEE31512BE17FAA03D2C78E1BD6BEDF9BD65D17ABC12E85FBD64A8F13D475F09BE025BD1BDE6F3CCBD6C1A97BDB3E51CBEBC02CCBD01D2AF3D5EB5BABDA19E9ABDB50DDA3D696D97BD519F623E3C2A99BD2BC9F4BCB60478BDC5180DBDF3DC47BD4AFF8BBC4D560C3E86E3BFBDBEB282BDEB13FB3D4BCD7ABD748F013E017CCDBD7A05CA3BD53A9D3C6949E03B8AA8093E37CE0C3D6AE53E3E9879D63DAF83A9BC5B7B283E114903BA03CAED3D088AE1BBBB0E6FBE110182BE638E40BE811C303DC45F00BE5CB2B93D859F46BD7C548DBEF61B64BE977BC3BD276A72BDC6F168BE559D49BE909649BEAB5A0FBE89FC3EBE8B7845BE9595DB3CD77028BE33F205BE54FDA53C80E026BED705F2BCAD7401BEFB6DB7BD307F94BD716E9CBDF4CAA5BED39D06BE0DD3073C8DFE0ABE68ED5B3C2307013DA49D14BE9B9DB7BCA58AACBD7FDE81BD37F259BD56B05CBEB6031DBEBB9DFDBDF697763D3291B7BDEB5D4A3C793008BEBB5348BE04190FBE626F39BD637195BDA5500BBD8C6312BEEE102DBED42F2DBD9FB48BBD4BB4B1BD17F6E13C556865BEC6CB03BE0C80563D2D32DEBCF5F86E3DC400F13D25A4BF3D684AAA3DF79C0D3E6A25B3BE8CE38B3B4CC8803D02A485BEFD0F7A3DB92BD53D151DE63D497CCBBC0422893DBB55F4BDA2E3943DFBADAD3D8B0F0DBEBBDE1CBD6053B0BD860542BDDA41E9BBB2ADDEBD758025BDD1C3D0BDFCCC6CBD413AB6BE936006BEF88B02BE833B8D3D48A403BE7B9ABFBD0853583D975442BE952968BD6457CABDA01095BD3CAE6BBC769916BE1EE09ABD53F78F3CE6F5053EE2C16CBC3133B93D6E2C983D739E06BEB0724CBD834A54BDE1F54EBDB7F31C3CBAEF05BD5D5E4DBD3E8929BD149D0D3E0A56303D28CFB23D8D02DD3DB163343DAC6B973D7EB8183DA95CEEBC9F06DF3C84A579BDF4A672BDE00B1ABD46DF383E3ACAE03AA2D21FBD3EC92B3DDE2804BECA2F373EEE847E3CD67F00BEC6C4453D7861F9BDEFDBCC3C3218753DECFD233ED76AD1BC9BE65D3D64DEE83D4CEEA5BD810BE93D52A08EBD57F6CCBC7F157BBDBEAE6CBD81C43F3CF2F9B1BB5CC2313EDFEA97390040F43CB3E51D3E83261CBE3BA9283EC8439BBD068EB8BDEFBA79BDCD9096BEB3F84D3D38A1A7BD3A9A5B3E5A6B25BEC97E983B408E0B3E30596DBE263314BBFFAD8FBC0E1D04BE316565BD71B92BBE485369BE35BB95BD32FF323E1862A5BDB97E683D232E8A3E00AF7BBD6D2706BDD3ABE0BB936DB1BD4AA00B3DD5F4573D5FB7E4BD8B8609BDDB661E3E7FB491BC0E739A3D170CE83DC228C5BC36AD4A3C433A4A3D9757E4BD81CBE03C7885C0BD152C0FBE3E41D9BCA525B83D008E01BED8C7F63C7938D93CB77C8ABDD3D489BD80D77ABBF30EBBBD4469AF3C59E583BD7603743C294B9E3D0C6A4B3D8F3596BDF127733D4823B1BDA17886BCA4E8153CA585C0BCCC61E6BC51CD903D82BB7DBD7B425ABD06AECCBB504677BDD14F04BDA25F6FBDD3824CBECACC70BA06F5EE3D4FBC16BDE6A812BD0197433DEF791EBEB27D2FBEF02072BC7DDACABD421E2FBE53891BBDD9B256BE888207BD568061BE46C817BD1B6ACCBC3539663C6F0222BD363E9CBD6E7DD83C9272203E33C70D3D1795A13DACCDAABD42E9FFBD3FFB24BE337826BCF3B9A43DCC4E9A3DDD24D13D25F2C83D9A71433D7AEC613E39D2843D5E38D83DD10782BD8EA2D83D8369A5BDE832643C59E185BB35F0803DE10DBE3B277B763B30766A3D5C28103EB680493DE38A323DB265963C1D634E3D2E5CD33D6D8E2EBD6219403D16093FBDC87651BD95B8D6BD898A283DFAF2E33D615730BDD9F7033D0AE883BD72E9CABC40785D3E91B49B3DC135713DF5C77C3DA286053D2E63FF3C095F343DA2EE4E3EE24AD53D8A75AD3CA670D03D797F6E3D33F4043E58DBA43DD58DA83B1027443BAF3086BDD0D0343DC3BD86BCC8D34C3E5B5549BD01CB85BDAEA7073E607B8EBD89BB273EC22E18BDABBFBC3D68A2253D5502DC3DC384733DBFEB073EBA87673E7DEF193DA48ACC3D6A59673E72A7203C9100DC3DBCD2A13D186735BA745D5BBC6A7CEB3C9774FE3D090DB23DF504033E08D11E3E6B665E3DCA05293D9277E5BCCEBAEEBB730D1CBB202722BD7E11523DACF02E3B06561D3E28DE063DDF3EBE3DEC0C3A3D25BBA4BC63D8F13D38BD983D80B6033DF3DCBEBC85411BBD461EC23BAAB68EBDE41EE13D7541C73B1A37E6BD11C6843DD01FC83CE2BF0FBE1BE4133DA5E8423CEE9A1E3ABF0041BD7EA8CFBDAF98CFBD0868223D9BA3B0BD818458BE5CFD083907C40BBDA8228ABE356DB5BDFC7B223D79C400BD39C5B53C3016703B11B8C8BD96F5A0BDD83D4ABC48069ABE89F348BEA550EBBD03ACE4BED51CC1BDB6E7BE3D476983BD06A1BCBCA10F56BC18F13EBD762B8FBD521383BCC51901BE036F39BD10F52D3AAAB6FBBE5DDE07BD1BF35CBD4E3EEA3A1B96373D1F2402BCB2E9B53DD83A003C0986AC3DE73D8B3D5F6E95BC79ED073D8D8A3ABEB7EECB3D88D5DB3DAF265F3D3BDBDE3D912E8C3D348BCD3D8553883DB6C4B43D54F4323E075F633CED96423D907513BE55271A3E7E04F33D2E80023D03AED1BBFDD2AF3C05FF713D1651823D8D349BBC01AC2D3E5747DC3CEF752CBCC1887EBD0DE470BC9AE4EC3DDE458CBBE3B1EFBC695B9BBC0CC619BDB0DB80BD28DF1DBDE8CAD63DFC32BBBD8761BCBDF024483DCB6C183D003D143E82F8A9BD8F2E4C3DD418103CC5B2D43D40AA983D99B70B3D935F573EF79DBB3CBC283F3DFFC8E13D45B5AA3BC1E6283E7CEDF63C2027A23C49B6DEBC6BE2E7BD48ED03BD8C077EBD3F993A3EA73C09BD1ACED73CEFB1523E4FE2D6BA53DCD83D0BAFECBC4D8DECBB074A963C2A2D043EBB0D403B567ED93C2C82A73D1F68263E5D0C88BC858CE1BC59CC4A3EA3FB483EEEE33D38D5ED903B124A733D4A31583D639DE23DFA7C783D9CD5B43D51375E3D1A89663CDE0FDABC39BFAF3D105895BC4768BE3C939D98BD7BB68B3C1ED5403B733E1D3E0D19853D2496333DA820323D71165C3A97BA203ECB8A633D4EF50B3D9CC983BC6F332EBDCCEC813B69CED9BC6D7E423E3FE54ABD8D97463D61D01BBDD96EAFBDAD6C223CCDAAE4BC51D28A3D21A9253DAE681A3D9EB6DA39ECF8A0BD9746BCBB19D7753CEBC4823D6B3AFBBD8D2401BEBA1462BD51A93FBC81292F3E623B43BD629EE6BC790C31BBCF8D32BCAC3B803DC4FB4DBDFC91A63D590C0EBD427CC8BD192B1EBED43DE9BD77250B3E2C62363D9999EFBCB18389BC20BD0E3D817EBD3C54266F3DDB81033E10C4F1BD0B5B20BD102A96BDFACAFEBA9EAFFB3D131C923B79628A3D608D07BD2807853D7B1D03BC737C983D0455393ED59C46BD376253BD59E28E3D857DD03C7AB52F3ECD84313DC109733D31A23E3DE83F273B1287C03CCAFA8F3C5460D53D842BCF3CBC631F3C1589AE3D4F170F3D4A600E3ED8D7243C1A6716BDD9F365BCAD3132BDFE1B623D67400B3D14F3CA3D2FA01EBCF7E5C8BD2D40253ECB781FBD8172DB3DB8A7D8BD64A79BBDEC4DCABD157805BED8BD27BE747437BDD2011A3EFD0F0DBEB32A10BEDD0C163E00928DBD16F81D3E664D20BE37D7CE3C80119CBD9C14183DCE0291BD2532293DAB1C233E938F91BCEAC9EDBCA49C1F3E57098D3CC6CB283E79FFB23D4E278A3DCF96203C103CE1BCC7D78DBA73C56A3DE1D0483EE0FBC43CBACB31BD351B403E275434BDE4352B3EB9C77B3BE64F1DBE8E32EFBDEBA409BEEC30AEBD83CF0FBEABB2023EE3CC32BDB2DA9FBDF5A1333E393E09BEAEE4C83DF1609EBDB8DE70BD9E661EBE38D288BD90B7C6BDF6BD38BEFEF13C3E1B3BB3BD7575E8BD6B05393E931204BE8755613D29F3B5BD5740A2BD5FBBB7BD72ACD2BDF844C3BD8E5FE9BDA8DC143EB092A5BCE84FC2BD349DF73D86DF00BD21D3AB3C29FE0ABE2771C2BC3E456EBE12764FBDD6D14EBD86E44ABE7720553EB5B3BABCD0AC47BE7576083E88CD82BD8971DA3DCF5843BEAE9CB0BB5CC957BEB12633BD247471BE1E7302BE316E3A3E4C0FA9BDFC0760BEAE43FE3D6C0736BDC40BC93D72131CBE88828DBDB7590CBE286002BD7DCFC03C651D26BE6C40583EAEA8273CE43A1CBE603CD33D650765BDC3C1943CC91FF8BDF601ECBD487103BEFFF5B8BDE384B0BDF4C841BEBD8E523E0C45BFBD76CC0ABE512B243E137B98BDFABE77BC6DEF15BE345C04BE898E1DBE9BD889BD888266BE881456BE08C10D3ED536573CA79868BED8DF543DF86508BD5533EA3DCC2F9ABD5AFB51BDF32DDFBD42DA0E3C0E3A0EBEAE5BC8BDF5E0493E2C6385BDB2B552BEAE59153ED069923C9602D33D680C96BDC5691ABC88319ABCA7BDD2BD67616EBDC1C2A83C85B4273EAFB9B8BDD712D2BDF9F22E3E2312B1BCA6FDE53DEEADEDBCC53014BE99A42FBD52A9B7BD060AEDBDF6E621BD1687023E28C5C7BDBD0825BD9FE01F3EE969F8BDCEDBD03DEE654DBD03848DBC1EAD913C875242BDF426953C0F6B713DC7A0083E0694C63CAE3C343DCBB5F23D38072EBD8AEC593EFD9F983D9744B53A21FDA2BC22BBD03C198320BD7061383DB12C42B91E2F62BDD7056C3C9B7618BCCA20F9BCC70836BD66AE80BD22AAF6BDE643A8B99FF313BD43AB0CBDE620083D95BCCBBBCE6FA7BDB8BF96BB79E830BD50D8643CD4FEF7395ABC57BD9139B5BCFA4397BDDB47E2BB7A4C9EBD5D1D5FBD90E6303D5D5EC8BD922173BD5B54F7BB2FD800BDF172143D8CD450BD8164CF3DB7CE88BC120E603B57034BBD4CFFDD3BB9BA96BCCAB411BE15A53F3D766CE63DAEE31B3DED98E03C3B22F03DD3F2DB3D2BC1BA3D6332D33B4745BFBC61CF563C7850A13DF66D20BD07AAFB3DB1FCA73D9F7A36BD1EA7083CCEA9DE3D9FF04D3C5408CB3D6F1DEBBB7F77AD3D0949233B2B068A3D46D03E3D3BCCC13D944F3A3DD6685ABD6FEE623C85BA02BC139375BC0A35553C1DA13B3DB2F2FABD605C923BC5FE8E3DE35E61BDAB48333D2B599F3DA565A53D36A811BD8ED5873C6FE2423CB44E01BD15B5023E1A16DCBD48C484BDC11AD93CC962B4BC5CBB20BCDD21273CF1B28B3D18FF6ABD6214333D639EC3BDD54AF8BCC219AEBD45F36BBD0A5075BCAC87ED3BB32C303D199A3EBDB17264BD9FA9FBBB079894BDCE4A9DBDF06CBDBDAF14ABBD8F8A02BEB98F9EBD8F2EC0BD426A00BDCE4683BDD9E90ABE268414BEF7D88CBD49F0363BCEC434BE99CE9EBD4DA914BD6633A7BDAF3448BE57AEF8BD8FE332BDE437D4BD56CEF2BDA27A0FBE2FDB0A3BA6BE463D858A4EBDA40031BD6BB000BD7EB8923B84D5B8BCE0F1693CFB25D7BCC739483A7BEE223B714E8FBC2A55E73CEE8B1BBD4313A0BDA16F4B3C759C84BD0F99013C6036BFBCC485523D7FCBACBBD36DE83A232A233D049B063D5A81A03C637970BC47DED7BC5D355FBDA4C0D43C9A9E05BD3FC123BCDDF8E0BC3AC10C3DCB59A0BD134F29BDFF945FBD7FF326BDEBEAD8BB9AA69EBDE715CDBDB5137F3C0B8C47BD90A4A4BC0084D9BDE63462BDFECFE6BD15CC24BC4E5D4FBDD7C604BDDBE564BCC987B0BDD4589639E535A83CDEB2D13DB5B6DABD29937E3CF9B0EC3B12DFB6BDBA4CD03A7294873C62D2933CD1AA443D2EE6183C4E511F3D44AA213D25FF493EFB094FBE3DFDBE3D9AF5A13BC3869CBD155F353C346C053D0E06303E2FBCA83D0D16123DFC471F3D3913683C668E3C3E693BE7BD8F6AF13C2BF2DEBB0B3C0CBB58F1443D37137A3D44DBE03DC15CB33DC94F613D7F2C5C3DAEB8993D5B95553E3ADEC3BD9CE2CA3D4CE2943B45203BBD377D6B3D286C103D04DA8E3D5721EDBC499BD83B7D83E0BC96F1B73A8E3C4B3E595490BDEE52943DC5D9963D1809F13CC602523CC84AC23CD861B83D9A2019BE3E69D339B4714DBB05EE993CDF41453E94D780BE2C0ABFBC7185843B0CEDA9BD9EA8633DEBC903BD248697BC8FFFE1BD13739C3D1AC5103D6061963BD2273F3D7DF9ADBD8AFC09BC16A822BC9AB95BBDCE4D8CBB302C5DBD39E47DBD7BDD9CBE898651BC51F11CBEA2F481BD5D37B3BD2A86A2BDC5CD8ABD066DABBCE65094BD90003CBDDA8E94BD120645BDE7D099BE37DC76BDE2CEB0BDD6618C3C869E9EBCFC475FBD4CCEE7BDFF1A45BD0F3EC7BD8BA3AEBCF43D063C3AA0CDBD29A8C8BDC2BCB3BD84A9A7BD77ADA6BDE5110DBC6D9EC9BD894303BEBC05083DF9FCB5BCC5E516BD72DAF3BD46BA973CC311283CB9C5EEBDBD98EABCAA3133BB26F68A3CB4522CBE7E48DDBD849576BCDFE2AFBD70EDA3BDC5B3BABD1B8516BD27D2743CECB16BBD2142DDBBE81919BDD2298FBBEDDB5C3CE0CE54BDFD8CB03B7C241BBDA0442ABD8E626DBD0E283BBC0BE75A3DE20401BDAC351F3CB3ABA33D104F5BBD8B6F92BC9C67833C457A08BDFFE968BD65F0F5BC10DC91BBDFCCF3BC713C103D20B350BCA1FFEFBC907B6C3D9337083D5C2576BDB7BE173D99CB47BD8C4EA63B96BA6C3DD5F29BBC0A635B3DC511BDBD920328BB9BA2123C7749803B6C5ABB3D75B3D5BD3358A1BB59DA353CBC8DFABC6AFD203DD4FD4FBD6498BA3D50F3C93CA8BA14BD31AE2D3D76ED703DC1F8123EC6EFE3BD4AACBCBCC766C4BC13EC8B3DFB86F13C1138E83C45C0883D8E12123C74FD863DFD75823D457C3A3D5B6B763D66EF16BEE681D2BC924B753C7B2441BDC436013C4FC4A93CED8B9C3C8F6618BD1887343D302F9D3CACFF963D04C2AE3DF60FE2BDDD886B3D647C883DFEA4003DB7A027BCF1B3C6BC66544EBC209CEABC856E91BC7F7A353925BB583D9698B13DE99582BDB0C05A3C3AE14ABAF9F79E3B1B4557BD112514BEBD29973D980BB5BD8F2F1E3D7572733D830107BD6BDE003E4FBA4BBD72D8923C3F5498BC5FB0D43C7A6C4DBD301DC2BEDC3122BABCA623BEE37B5EBDA2779A3D67F430BDAE5A1A3EC475D2BDE1DF6FBD25FC88BCEA6DB6BC0B0013BCAD3FC4BEA7FA06BD019A9FBD6C8387BD232ADD3D7BB674BDD5A006BE2589A2BDAFE86EBDDE749E3C9A0C35BD344DA7BCBD3BABBEF573F3BD3566F7BD83E4DDBB98C822BEBC7D9CBC1F69ACBE225A193D879198BDAC8BBD3CC55A823DD118B6BC6322B0BEC10F2BBE6F848D3DB6391DBE669E40BDE6E3CABDFF89F8BD36E82FBE72E3F0BD98A8C2BC4CF985BD8328ACBD360CAABDE4F8FEBD8829A8BCE08956BDC7ADACBDA02301BCAA3938BD4B4E8C3BA82B95BDFB34BEBCC97FD5BD2040223D52D7F1BBAB0C63BD55341B3DCC097F3BAC4352BD886ADB3CC66BC93CDEC50CBB095555BC26D3B33B00D51A3D5F4C893C3C12A2BD158B393D2EBE1B3DA96CFCBC491645BDC1052DBD1AB74C3D09EDCC3DC53B9A3C1FC040BDC595363DCC34B5BC288E173DB724063EDEDDE8BD1DAB3EBD17599EBD84C674BD9006D03D0418E9BDFFB00D3B02DAF13CD4AB573A567DC73CCB61763DF364903DDE62FFBCFE15A63BFC26553C0428853DB6A1253D367F3ABE543FAA3B3BD3EE3DD9DE4CBD967E423B8ECC0E3E0130BB3D1E67B4BD9C292E3CB623053C3CA3743DF92C543DDDB2A4BDF2D10E3D7FABED3DBEBA353DAB64243D5012A03C596ED93C5ABB15BE60C9573C9A398E3C8587093DAEE1943D925861BDDE98473D539DA13D4B394C3D83F09EBCD825E2BDA396DA3C5088EF3CC1F9493D799D5A3C9601C2BC59225D3DBD4FE6BC45A922BA014B673DC340D4BC168620BD627473BE2EFD20BCCBC4FE3CDCA2DBBC169A663DB85457BDA7A5A73D02CF41BC8F2190BD78E7273DB8C63BBD0D2B0EBD241C74BE13FD67BC3519C03DCF341CBCA3901F3D477369BDDCD73FBD531070BDA6AE8CBC832497BD7122D2BDAD30C2BDA03A4FBE8B9F99BDEBD4103EB3653E3C409A92BCFB619CBC104A5BBE2E4FF63C2B744BBD933EB0BD3AE6913BE75F42BD0F0EB4BE823C92BD4F298C3D38CECF3B8B3E34BEC7720C3DB9EDB1BE50F6083D69B3D3BCC6EB59BD1037503DC9F2A6BD924416BE28628FBD9559FB3C091CB7BDE5801EBECC97D9BD38430EBDCEA4FCBDE50AEBBDB8217DBD922122BE24D94CBEA4A7E1BD86FE04BE795AF33B6FC7EFBD192414BD87D67BBDADEA0BBC4CB4DDBC4438FCBB19FD64BDD9C3223B30F4E6BC1D11B7BD0E6A36BC3C040CBD2A2B83BDAB7A82BDE3C194BC6670CA3DFB43EEBC6EDCB5BC16C3483D638C473CA80FF0BB112DA93D1CA3A83D7B295CBD53A11DBCCBAD9DBD6F3B8CBDD2C8263DC12A92BDA206CBBC8A4DB13DE7C99C3DF9BBB1BDD7F2153E9CAC243ED00A1EBE216E9EBDFA9ADFBD461706BDA8BE733D85582CBE43ACC0BD94FB093EC53A9ABD3D1FF0BCDB86073EE4C3FA3D31159ABDF99B08BE614D22BDDCC93BBDAD50093E0CB772BEA02921BD0A6E303D9CCF84BD94F207BD404C27BDAB9EC43DA91C10BE9AE2B4BD597BBB3C70949ABD9F8D8C3D1CA115BE1E31793C0C08283CA4E437BD6F0EFABDC606ABBDDBAD953DF9B376BECE15CABD71ED4C3B07D089BD19EDD13D29F586BDFD7BBBBCE936F9BCE871E3BD6C9CF1BDD765DCBDE169D43DA1193FBC3330F7BCF94FE1BB265452BC9F45B03C62DF2F3CDB4D3ABDBDDD27BDBD56F8BD8F66CFBD68064DBE11C618BD5BFAF73DD338613CF6BCA2BCD5BB9A3CAD41ABBC5692203DD8FFCD3BD9951EBDB47F6E3B998C0EBD06FF57BEA3D7CBBD0C1D273E768139BC7E6F85BDE69884BDC64E37BEA70B1B3D927603BD4898ADBDD15A5CBDCCC831BDEEE17BBEFAD8D1BD55B8563E728F313DA77C0BBCCD2955BD1601F3BDAB56953C0D7A35BDF34B5FBE94831D3D80CF81BD5B7B5DBEA7C37ABDD9554F3EE57A23BD67F165BD496FA03C488FFCBD172DD13BF0ED10BC76E249BDB5560DBD3EE92CBCE616A93BC1F388BD35ACA63D6F0E96BD1FE827BED58F86BD45212FBEC77FCDBDE83D21BECEF3F6BC7076B2BCDA3B2FBCEDA6943D790361BDDDC2EFBCCE3724BE847503BD2E5EC2BDF0A48CBD68354BBD67B4F33C8542983C3F199A3B515157BD2334F0BDD0813EBCFD6CF1BCC58D02BE93348CBD777F11BEA0DCA13D9115CEBDBD7895BCF00D24BD64192B3D20FB86BD2FAC82BDF7A2313E6CF6B8BD2B7A2ABE1710F1BD58549DBDBE631E3E6500D4BDF478F6BDD12CFB3DD32CFA3CF81B1EBE5D66413E9E3A0F3E8A1927BE586CD3BDC98714BE989F26BEF5B75E3E6B5E9BBED7F129BE8A23923E62FC83BD2B1414BE5ADB933E0634453EE1FA84BECB3832BE8FDF3EBE9AD51ABEAB58033EDEBBA5BEFD2F85BD08C22A3E56BC20BE5A20CEBD9525923EF7DD933D2D2B86BE926ACCBDB71CE6BD9DE225BE911E073E2C8059BE4CDD10BEBF875D3E9E58C9BDD2F208BEB7877D3E09289C3D21BC9FBE4A9535BE4B8AECBDCC16C4BD5EB75EBD7F83D2BD1560F5BDCA81373EA0988CBDD22C40BD2ED5ED3DDBC15EBD0DB7EFBD471B09BEFDCE8DBD963C8ABDA71C12BDA9C88ABDCED114BE37FC31BB2FACBFBD1D38B9BD15339FBD4497FFBCF74EAE3DA24BFEBD2D496BBD1F2D4FBD4C3ECCBD493BEA3BBE9AEABD8DFB6ABE2FBC3FBDAD01A1BC3C6DEFBDF3BC15BEB702853E3BC7A63BD59B30BDA8D9903C4B602DBECA02C03D8CD4AE3C727185BE464F5F3C0BC41B3CA33F51BEB50331BD980F723E11A8323D42D89DBD69AC13BDD600E5BD4D688A3D02FFABBA446629BED6DC043D2DA519BC3F9AF73DE8898F3C024E103E4ECE34BB5CC521BDC033B73C5E83CEBD40A0E3BCCD2DDABC0C314EBD2FDA31BDB908523D6457543E673935BD9FB2B83D11442B3DFBBD0BBD13BCCD3D3E1BAC3C7F17983D7B59BC3CCDB9003EDBED403D4C670E3ECCED563EB30544BC85B63E3B4630383EA94503BD7B42C9BDCC0226BEB5559ABD9D03E8BDE650D43CA5366EBDA54DB5BC8CA5F2BC10BD14BE05998FBC0D9786BD4C050CBEA78BBBBD8832DFBDC3B938BDCAD1A2BD1C052C3E1047A43C93C57FBD8550B13D8F99623C703808BEB4F5C2BD61D14CBEC7440BBDF584A9BDD15C01BE66F9A9BD212A683E1AC6D8BCAFF7C9BDBEC4AD3E7AAF71BC990D09BEC1B037BED92F90BE6CC82ABD481E2EBD205C88BE311AFCBDEE00A13E3A84D53B3EAD81BD6B59CA3EAA984F3DBD4D80BEE7EBFABD918856BE2983E7BD6E0609BBDA0F45BE9E3B23BDE0EB153EFFF63BBC17FAC4BBF24AB23E7449483DBF3AB2BE2F28FABDCB1DE1BD68E347BDA532C4BD400B14BEC807C8BDA25F253E9EE0B0BDDD4A583C0C1C813E6DB9E9BCCAD675BEDA69A3BDBCD41FBE75F833BD40F5AFBD95CA64BB4BA96BBDAEAE2B3E9414863B97F1533CD427313EA2E7F6BD0C230CBEE94CACBD973604BE7BFF41BDEDDD4CBEBA850F3D4D0088BD4D52003EAB652CBB8AB7C2BB6F43863D00CCF6BD7564ACBCD06A19BDDAD8CABDE26343BD598664BE52C04F3DB3D60B3C7A5283BD0F2CA0BC7E4010BDC79AAA3D55D320BEB358BD3DBBD254BDC46BA5BDD8CC01BDC34547BE28D9B23D51CDD9BCCAF390BE9D083C3DB2EC13BD5C8EBC3D964FD1BD64C7883CFFE97BBDE1DDF2BDC61F24BDCE0E28BED2E11C3D74CC38BAD2E29BBDE2E5EA3B957F42BB5507553E7FF0823D005C00BE83A799BD09CC22BDAA55663DFA67113EA15220BD48B88B3D7CE2093CE4BC8ABC8249343B1015AE3E2240193E900718BC47F2993CC6A13F3E2750FA3D456A4D3EE72FF33DBEC0133E02009B3D7A8C2B3EE50A1E3E55D7903E238DF63D26863B3DB99C1C3E7864593DD448103D9FAC72BDBF36ABBDEC338F3DC7C1C1BC98F1F1BD3791E73C00E9433C519F80BDA2BEB73D6F10993D789294BC153A693D85AA8CBE5DBCC13DE10015BDCE6A2A3C17A9C3BBA93C193DC1D5B23DAE9E6EBE87D64BBCAB6C46BDCA0FA6BD13A2283D37A469BEB480BABC0FD2C2BCCDA2A33C495CE03CBD24FC3BDCC0093E4DB8BDBD4FCA84BDA14583BD9069E6BDBF81A2BC41062FBE947601BDC50887BDA888903D8D0D2C3B2D80C63AB3CF8F3E05AAADBDDA6377BE89D869BB682AFBBDC6E6D83C8C1682BEEE2181BCEF64073D037E22BDC4BE393DF0F9D4BAA3EA9C3E7D05C4BD7BC000BEA6A6153D83C4A6BDF67EB33D480D33BE5F08033D6ACDA13D0FC0D0BBA734F13DA84BD23D0A923C3EBFF284BD0F0E1BBD162DAE3DA8C182BD967ED43D0BC9F0BD3644CB3D90C8003DFBFFBF3D0906F33D3CC9DD3D9640243EE90BB73BA3BC5CBDCA139B3D970334BD6795A1BB55113CBE24BC903DCEFC96BC9DD9063CCE9A903D47554B3CE69EEE3D7E878CBDABD91FBEFFC2FD3B0EBB13BE05E6183B53A017BE7CFC82BCA392323D2B9D25BEDCCD2A3D83F032BD8B03293EC598AFBDD8C97DBEBD77183CE78F96BD50F53BBDDA8B93BDAF86EF3A1BE0213DC8B115BDE0FBF23C545E0E3DC076943E521E383D10C438BEF0B6843CD872DBBD85B40FBD43AB8B3D6C775CBDADD30D3D7090C13DD46FFA3C61091E3C62BA933E3F73223EFF4DE6BE5F84583C2B29DEBD09F5F8BBF9638A3E5AEA80BD1FC617BC5360403E31E14A3D8E66A13D7A478A3E4A6B5E3E7CAF82BE0379503D128E6F3E6450A23D862FA13ED5350C3CFB91003E395BBA3DEE61033EFDC3D43D83C98E3ED690753E87F6103C684A283E38FE3C3D79C2933BE650E83D14E2AA3C39F1F3BC843A073C86A02D3C19E4483AB70861BC06A8BE3D1E379C3D7B852E3DA30DB33DB05BCF3D2A3A56BC21CC123DC4E1203D8112D3BB6D03473D360C863B30A52ABDA22A79BDB370923BCB584FBB2DF6513DE6EEB1BC5C109EBDC976243EB5DB07BDD6EE5EBDEFBA883D9BCDA23DC481AE3DF4EC903C014C883C9024693D74BACABC0CD79C3D7C8462BE03BF143E57ED503C1449A5BD85CBD03D09C7A53D6E39493EE6E6DCBDB80076BDCBCC48BCED50503C7010A53C53C43BBEE3511B3EB6E2C73C22BF1BBEDDB5A33DBDFED83D69B40E3EDCD553BC8C09D83C40DEA23DADBE163CDA97853D0C0165BD1510363EE98AE93DB12D71BE75C0EE3DA1B2423D40C6283E59F31DBD8B21BB3C26DD063D637144BDE28EA93CC5E0B2BDF52F0D3E59E8E63D1821CBBDDB3ECB3D8D04603D3F38053E366D3E3D125009BEBC71C93DE558D5BDBDD99ABCBB2A83BD41D9533DE9FE853DA2A1943CE053F63CF4737E3D5A5F2C3EE282A7BC2F66C2BD1174ED3C7A1737BD1807A03BFE7016BD59CFA4BC7874EDBCCC9A5D3DC103C3BBCDACBA3C5310203EB799043D986787BE30B0B9BC8BBE05BEF4DF1CBDA865183E070CB3BD6C21933C31EF263E9EA1D13C6625433CD479073E895CE43DB01DA4BEA3669F3A009D02BDA0680ABC9606513EDBF7E3BD1A1BB9BBBFAA233E9407293D4680493AE93E393E10A7A33D0751A0BEA389EDBBCA33DCBC7EF93DBDF0E8413E731118BEED81FF3C97C13F3E9BA667BD8E7AF83C1B96AC3E7777013E2B04FCBD457A3A3C506E023EFB99073D217D2C3E90529A3C09438B3CADA5473D7B1D843C0829633C973F803E9EFCF53D392A77BC3B5A5B3E5FD57CBC2728C13CD1F4963C93F44DBDEA0F54BDE88CD6BA3A3460BB70FB133A3124B23D49E3123D31708C3DC3369E3C6FC103BC595E5E3DA6CF0A3DB1AD423D9218B8BA1B2886BDB11DCE3D7049423D2CD8D2BC6E40CA3B5FFB94BCD6E744BC14022BBDBA6B803C5CBE8BBC9FD0083EF8A43F3D81C62CBE04E0033DE93C6B3DCE944F3D5938A83BE689C23CE65F943D5828D0BB2AFD453D4DBBE4BC9AD12B3E7B4F2CBC5F0652BEA811E93CC846B03CF74472BDB18D4CBD0DD6A53D18214B3DCA93833D1E458E3DAC00DABD238A013E21A7853C2B1164BEC8A3053EB9A1973CE1B4FB3BEDFC333CBE41773D69A5363D226C253D38E6A13C8FCC313CFE3F883D1DD5BC3D4C3F06BE0FCCB73DA569103D961F7C3DD5D5D53CBC88F2BD1D414F3DAE93B23C2823743C88A5243D3B11AE3D767CA53DC69BBCBC1050453D87E233BCC2CE073ECDA6973DE7228EBEAFE028BDE3B24D3D6926BD3CBF6EA43D52364C3B5D08D43BE52EF03DC6A09D3D261F3C3B42A4763D72D84B3DFC3FBBBD24CAD4BA338E593DCF021E3DD8F2163EDA4C7ABDC592103D3C97443E9A35483D71977E3D8599683DFE4A003EA34989BE06FB1E3DCED33F3D00470CBB127A773EB8DDA0BDB297EF3B761FC23EEB4D253D18EB3B3DEEC7153EE1DF793D301A7EBEAA725BBCB16FC93CBA3E1F3D81C46D3E8F9BC4BDB6C4CE3C8415B43EADF6093CF096353DB484823E02CE2C3EC6F90FBE04EE893B87C3A8BCF22B89BC23CDC93D3470BBBDC3C378BC921EA13ED51801BD297C35BB0F3C7D3EF5D4053C2E806EBD8F0BC63C35EFFB3D617786BD0F46763D3CD3BCBC4E18153B1A91B93D6742E43C936700BDC129EB3DD8E84E3D6F381FBD1C7F093EE81C113DED93233D1D26F43DD00FB9BB9E37F03C0675263CE466443C53A4873D042BAF3CCD20EA3C601A013DCD17A83DAB8F5EBC5D9712BC54D5363DF0B2B13DB95B18BD6EFDB0BD1F2B93BCC85021BD945A38BDDC45B9BCF839D5BB6C6AC4BC8149303CA2508F3DEF854ABDD92D103E66A2ABBC6CD0FCBD28AEFD3896140DBD09A016BEE9BC40BB44BF0E3D12CD18BCC9DC853D36E74DB97FB187BD7CD2AF3DA484CABA79076DBEC6D8413D1DDCF2BC404846BD438B35BC2C389A3D36185FBB1D0D65BC07FF193D32E73DBDA86A72BC306DFD3B080A05BECFEA5D3DD4413ABD9C3A87BDB005E7BCFD7EBC3CF5E810BC46EE313D58E5D13A77EB693CD1982ABD7291B33D7F4524BE626BBE3C6A07D7399E3037BC9CA985BC71DF05BED1DE35BD08C8083D0541DEBCCE734EBDA5F104BEA2FFC4BC75B7C03CEA2270BC05502A3CCE5A9F3C7C96263D3ECA89BEF0AA35BD7B701E3D94368A3CB5E9CA3DD83AA6BDAF87C73CB8D6B53D5C4065BD687E79BD06F7B9BDA6F7553DAE2C8FBD312C123CE1D59B3D7EEECD3D2261323EAD18E2BD8F5F5B3C98519B3EABF454BCDA975F3D8022C53C706CCA3D4303A2BD0BD8BA3DF004AB3D9099AF3D0ACD133E230E453D35C51E3D310AC23E6E93303C7A01793971ABC73D3204E63DF7AB3ABDC57A843D020E213D2F4E4FBC1C2CA73DA06011BD712F58BDF367A53EA25AB7BD4CD221BC782F9D3EDE22353CABF8DB3DEBEC9EBC83D65F3DF83F95BDAC99043D1A4B83BD69689E3B8954713E9D0BB2BD62BFE43BC26B353E04FD5FBC01B1E9BCF618C1BC33E0E13C2055EF3CE0F5B73CC07B17BCBAB5093DFB3D8A3D19CA603DD152D03D2662843D17C4543D2DFBB8BCDFAAF43CD45AEFBDD1A53EBD4670273D46D6473D18751BBD508B8D3B4E75963DFD1044BDF02AA7BC16B3AE3C9899743D4C8647BD665697BDCBB41DBE0B17673D192EF5BBFB09FCBDE0E3F1BCD5BA843CCD5DC5BDDF9714BECE4B4A3DFC2C8BBC4FDD62BD44A2313C43FC39BD747AD43D7C050C3C089D60BD57C909BD186C373CCAC567BD653612BE6BC8923CD0B9193D5B70B8BC8EF4843DE27E0DBD81A5503D5DE441BCBE6D46BC5BE426BEE4E9A03B2C116BBD079132BE0A94AB3D2968E1BC1764763D199DB03DAA638FBDEEE9A73DCCC51CBE6113653DA52C07BE3221393BF28CBCBDAC447FBD999DA23D20A2A4BD1A005CBD2358423D70C82C3D09F63F3B384E0CBE9A8FB8BBF816AFBD8C6273BD1517CCBCD6AD79BC6FDBBDBC285718BE10C293BC1FE19A3C283F50BD7BBF28BDB20117BE1B48B5BCC8CD27BDF0D35BBD3FF8503D365983BDB707193D4BAF9BBE0B7244BDFC9DCE3C34FB8BBCB458083D1FD805BE771504BD67406D3DC06C8ABD04909D3CC56C2DBE80ADE23B8C07A8BDE791423D81995F3D6DA4623D8180DA3DCA2979BABFB1683C1090613EA05B58BC2DA760BB705F713D46D38C3D6AA65B3C4CCD623D6713823C95129A3C17B9DB3DF6FDE6BA692DC9BCDB8C313E3ADAFF3CEEE8133D051B0B3E8273B53DEB6314BDCE4C2B3D36C34C3DE882D33C7134513C9D8004BE123E9FBCE2152B3EDD8F34BDD54BECBCD6CCC93DFEF2A33C651F403D1C9F3E3DD0D0893DDF5288BCFAE1033D9B09983C7CC53ABD125CA73D50961E3DDC0F953D0A2D823DE092583C75C2E2BC6D8C0FBD2730833D0992A03D6CEB7A3DE49F8E3D0F9B62BA2980E8BC55AC79BC42B220BB75EC3C3C0B06C9BBFA6ABABCEA7E5BBB015D2EBD02DD38BD92D9E0BD57C311BDBC5DEABD94AE23BC164842BEDE11CEBCDB2CD3BC493550BEBF24EA3BF2BB9BBD81BC0CBE96DE0ABE908A80BEB6F41EBE77E451BE0CCF023D1A3567BE19C015BE98E6123B08A256BE4EEAD0BDDED64ABE3D9159BEA38E39BE5D3B56BE884CA0BE977F88BEFAEA493DD275BFBDDE7856BE5796D0BD389A68BE51C7C7BDD5CA4ABE58F315BE07BF78BECB89F7BDA5347ABE76378FBEDC6F103CB28ED2BDD7B469BE0294C0BD4668E9BDEA8A0DBEA7003FBEE4220FBEC98C81BED180DDBDB1D2B0BEDE7C83BEC087353D1C0558BE90889DBE1F5671BE1161EBBDC96BE5BD560C43BEC2365DBD820B44BE006E25BDBC159BBE1858D6BDDAAA66BD2114B6BD496212BEB7E28BBE70B50E3C35159ABD2BAEE8BD276A24BD6C0092BC99B082BCC1B33FBE73F77CBD5B052FBD9B2C8FBD28C719BE69104FBE6073F8BC9F230EBE66A761BD2B46443CE6652CBD13A5E13B1B7759BE91B115BB27135DBDC752E4BD7B4A12BE02EB75BE8BA4823C16194ABE2D4400BD99F6053DD9C83BBD1901C93CE9B63FBDC1B197BD0268223C68F6C6BD01F5FEBD499C41BE9A86E93B300B13BEB2F199BD204827BD249D03BEF15A76BD170D0BBEC3FA1BBEC9A432BB81B537BE03FD07BED763ABBD40E401BDCEF1DBBD8F0001BE9A2D48BD7A2F19BE929A58BDBF2CA7BDC26505BE6B82613B76C2E23C936295BDF7BE823C9B14913C992AE8BC62194FBDF557C93C8268FBBB2629113DF8F8F8BD7B031CBD6864BEBC334CADBC2CA347BDF06665BD13AD5BBB9808883DFBF5233BC127B53D3F51913DCEFD013D3EB1D03D2648A43DD2B4A7BC5A2649BCE793F7BBCCB4EDBC0498803D5DA4BD3C3215483D199F4E3B238B9F3CA154E1BC1F08ED3CA77F8DBD4FD890BC8209523CE22140BDDCF7DBBD406ABABD1B5B4ABDE49024BDDEDFF03CCF77D93CCF5836BDB7B538BDD67B40BD65206CBC8D1ED83CD030433DE30283BDCB1707BD1943953BC044413D8CE91A3DFA95733D2269ABBDE18FDFBCA097503DFE8919BD3D622F3DB2480E3D188E393DEE3E82BD309479BC3460EE3DE0ED3ABCEC29D63D3B3191BDE9E86A3C41116D3D20A7A73C12F9A73DD62FCE3C2BBE613CC82AC3BDA3A4C9BC5C0DE4BC3D39763CE2E431BDB61604BE5E6F683D3B3E89BDDB93873C70D3623D38835F3D972D8EBDF70356BD2243853C319B40BD728913BB93F1D63C23923ABE6009BBBD0D7F8B3CD4EE4D3C38EF02BD4BF9333D3D44823D5DC2E7BD19EF8B3C8CFF413DDA0F35BDC6B6673D219FD1BD3AE8EEBDEB5D153CF07F94BA63CA8F3B81E2353DFE71A33C7730ADBD5612B4BD6FCE2A3DAF2008BC38EA153DDE8D2BBE3242B4BD60EAA63C8B7EC43C155E92BDE6C6AABCB46404BC49AFCA3C440FA0BD8BAAEC3C25300A3CB24A573D80F869BD3D86FBBD3D694B3C0928BB3CB63965BB8BF1943CAA3E813D1929C03CB14007BD88179E3C718901BE98C301BCCD9C84BDA43CA2BDBE3562BDB3458CBC5872AF3A76DCCD3C032A67BC9496A9BCAB58A4BD43BBACBDC81C44BE9FAF10BDF916CABD15221A3DB27F99BDC00F843B50DDBBBB110CF83B1A3E96BD70A5703C1FBEB9BDAE793ABE1FAEC3BDA0783EBE3D8DA7BCC53C62BE9C1E54BEE2AFCABDBA793CBE348D3DBE84B0B3BDEC4DC8BD8C58CFBD5535CEBDCC5FE4BCFAC202BE21C1DBBC3A9FA0BDC75AA1BCB8E0ACBC0025ADBD518235BD31AF72BD30CB00BD2D9277BD935687BB6F170FBD1EE1E0BC2451E1BCC8D750BDBAB64D3D6405BBBDB7D064BB5639E6BCF30989BDD43BBEBC863CC1BC10BA783C86457C3D8596C93DC3E8043E8836D73CFFCE9F3DF0DD2ABCD483B33C8207A63D8E840A3D9D0BA33DCF9C5B3D4E22B23DE920323D9A39453B50D8313D47BDF63AB743AB3DADBF0BBDF9F0A93D99D4B53CB72D573DF712833D987D3BBDC05B9D3D848AA43D0E39E93CE1D7A93C9615C63DDDFDC1BBB2F9B63C8306973CC3B18FBCE0C84FBD1329F9BC749D1E3CDBE6893D772F743D8815A93B392B943D855E74BD76023B3DCF93663CF4BE0E3D0E7B9C3DE2AC1CBB0AB0B53D3F723A3D24A5C03DA2AD8C3C8A27EE3B658FDE3D1AF7E0BC9458FF3D1E531ABDDEE8043DCB1CB23D96B6473DFDFCCF3D6609FBB92CD2063DDF1D6F3D623E883D8E475C3ED0CC873DB602D4BCA748203D4077683CE3E4C83DACE3473D57B9163E27870E3A3A70AC3D3BD2B1BC2224853D52A9CA3D0CFC7ABD67B9F43C54EE363D170684BD0D1D5E3D13B99DBDB9474B3C81D2C7BD0A379A3D6F310D3D0D1205BD8CA8763D561572BD779CB43CB54DD53CD3318FBD335C94BCB49608BEBAD1CE3C49D468BE34A9013D00D0BEBC1FB1A3BCA3DBF3BD2B7B60BD2F03A9BB62B51BBD659D9FBDD237D53C61D101BE7CD10BBD131B9FBEB02422BBAD39ACBD1763A8BD02E82BBE0078A4BD258744BDA4A268BDEC1063BDEAFCAEBDF5481BBE6063F6BD6E9C14BE6C9212BD03039BBE0F60D2BD6A9F1DBEEDEE07BD29B393BDA17D98BD2D1582BCA9268CBCB0DC1CBE3C77CDBDE9A29FBD7DFD75BE6153EBBD819F11BEF6ADAFBD9576FABD47B92DBEE6030DBD8BD504BE86DA42BE164D56BD8BCED6BD8F219FBDDB09F2BD2510973D61D6963CB0D5193CFF9C3A3DED9EAE3B1D049CBCDE41273CAB91613D5F9D03BC35CEC73C8DE8EBBC15E5983D1C28043EAB3CDC3CEAE9023E27A865BDD41D883DB6470E3DAACC6C3DF9A6393D88EE343D6066BB3DE103693DBBFABD3D5ADFEB3CE2E9AC3D0AD3233E77782ABD0784203D9357C0BCD58B323DAB48C43C9807263DAA83E73DC07044BD2EBD653DB6A3873D5CB6953DE5AA193E414362BDEF93833C49C7EF3C3A2641BDFE59353DA78C8F3CCB1E5D3E19C08EBD04EEF5BB3EFE42BBCA1AB23DF5F48E3EEB3D40BE24EF313DA216C13DD791923CFA9A923D3F67B73DC41D053E5DA9883C0C49223CB827523CE2B5BA3D3CC9403E49938ABEE3A2363D6634DA3D79E8DABB76CFCE3CE2CBFB3D8A5A803D797295BC98C1A03DD57AAB3D588ED93C7DB50E3E08497ABED09D503D9AD46F3DD6685ABCD09DC73DE114E73D623232BB817AFDBCAF5BE43C94F8A83DC302D93B3280C33C238CD7BDD0A08C3D858637BC575D153B9E66973CACAD84BD5170FCBCE5D3CD3BCD29A5BB4D9D7D3CD278A63A72A722BCD77353392EE436BC3F3A42BDBB4F3BBD7BBAE2BCE67B75BEBE6FBFBD931E83BD2C7AAB3C710E33BD77AF03BD89789BBD299498BD124866BD567E1FBDB4C050BD180BCEBC6AC576BED7AD1BBE822954BD0D9E97BCA610953CA9E60E3C869124BE005D91BDD68D97BCCC711FBD19D097BD516166BD409196BE6B9DBCBDF40FBFBD61219BBDA004B5BDFF3DEABC3E6F64BEDE5184BD8FA7A6BD1713A3BD634E8EBDEAA149BDDBCFBCBE341C14BE8C3F01BD9FB21ABEA17B46BE3093B4BD38F42BBEBCE7D5BD2F3AA3BD2B4F09BE5FD7C1BC168E8DBD26DB21BEFF5637BEECE829BC305239BE9047953D8864553C8631173C1F2D273C2AB7123D74229FBD0B58093D879B3D3D5891373DFDC5BB3D722D423D5B6FDDBC7AE04F3BEC57C73D0B86643DBD80133E91D5973D5140D33C7FD3BD3D5BAD453CD3CD373D50E8113ED46367BCC5CE6F3D66F45A3D283A093D9713D83DC2D82D3D47CB213DBA4F953D2E18863D32AAC5BCCBC4A73DE8A1FE3DA97FCFBDBD19D73C5243D6BCC39AFB3C495FB13D33731DBECE4D7CBC3D72743D0C18983C7F6A9F3C184D1B3EFB111F3E2B31103B4E5445BD30BCA0BCA8C0BBBC2A041B3EBC4382BEC4EDA43DA4D4DD3DD1921DBDECD51EBD11E6363EFCAF183E0B1136BEF31455BCCAF999BCE432DC3C06381E3EC107AFBEDB84C23C4D80E83DBE0319BDEDBE4ABDD16A143E625DAC3D671E1DBE254E9CBCB523F33D38B3913D90FCF13DE3A7D2BDD72C50BBE828CA3D260D87BD78B1AF3BFFAB2E3EAEF4953D19C1DABD80BA883DD1680C3DF93D0F3D716407BDD3E6BA3DDD138D3DCB3D92BCCBBEA9BC7029573D92F0DB3D7F4A38BCEE61C5BDE446CC3CFE668ABCC66A903C25249EBD4642093E6B1E1F3D8232F6BD18C1383D74740BB8896D543D89F9E2BDF74CA93D105A153D763507BDD8B2823D02B786BE45EABE3D451E723DCC8739BEEF16A63D8552A63C7E2240BE870EA8BD6EF8D73D9CA3B9BC2FD93CBDAF7225BDF919A8BE6AB2003C7BC634BDB8620CBEDDD6003D39F73BBC574993BEEBF6F2BDBF3535BBF48436BCC51734BE608DA9BDDD9CADBE814E5A3D603287BD54FADFBD18301DBB0CE04DBD17908ABE3EAEC6BD991F8EBD532202BE411E26BE85C323BEE93805BEC0481CBEB30943BEC7A810BE8C7182BE0BB66BBE31F551BEC352CCBD1EFC48BDE68783BE882D9F3C2AFB0D3D5BEC80BC6A3C38BDB923833D101206BD32D4913C80A3BE3DE5AB613BFFE3343D401C8E3D94F79F3C92EC15BDAEA1E7BB93C337BC9871343EB845CD3D9CDD413B9D96253E8C9659BCEA82ADBBD173263D9D7730BD16AE123D8DB858BDB2CEE9BC2ECA313E777417BE71AD17BD2FBBAD3C11F1A1BBCF4AC9BC37F1BF3D2D1C1B3E1AFCD1BDE2C56BBD6D9807BE7146CEBDD0C3BD3DE8DFE4BD255654BD4DCED83D9EFD063D68E507BD19EC5D3E3B2F443E7EED3ABE634BE5BDB3A908BED21075BD95C30D3E30FE37BEE5EE2CBD13E0EA3D7F9123BD5374E8BD627CB23E9A994F3E86498CBE9B04EDBDC67E13BE212E18BD03B40A3EFF4DA1BE405F48BDD3ADE93DC32FFDBCCFF791BBB3C2C03E95050D3EAEF25EBE11214BBD8B3ED63B626EF43A993B283D7C708EBDE50C4B3D8D73EC3C649FA43D5947423D8E21CC3E3070AE3DAFA1F3BD9FC3603DB640D1BBA2642D3D537F13BDF114A13DD663583D4E566CBD14C3533E079F543D7E3E883E5156F83BA9071FBEE6CD863DE4146BBD08808F3D3C35CBBDE6A9AD3D0AEB7C3D4D78EFBDDF8EB43D81E5A33D894D433EFAA7073D80268CBD1E5B313D8530DFBCB365CF3CB2B8E3BD640EFE3D3377C83DFD4238BE76B11D3ED389FD3CE705313D9946A03C900999BCE947513D0068F5BCBAAC543DFD9A2CBE89B8AD3DD9415F3C7EA0A1BE1733413DB6125B3B7AD150BEE730B4BC5C91F0BD0F97103DD82B0ABE50026E3B7F5B50BEA6BDDE3C5CC52ABD674D4ABE6CD8143C5FB29DBD835FAABE43A4D6BDFCF0EABC34E02BBEFA8581BE96D990BE7B0674BEB604DEBE5172C1BE7396F4BDEEA6C0BEF8BD98BE78A002BE64E53ABE38A544BD3A0128BE3C24CCBD13B2E43CD83F913C420464BD6B62B43A88300EBC5B379F3D6CB72DBD667E0BBD07091D3D9E2302BD086200BD9B360BBD88E3C1BC8A5C0CBCFD3E3D3E77D225BCFA940DBD9DB56E3DDC695EBD7327A6BD001A18BDF6C91ABE300057BD6F3C70BE44C212BE8FDF2BBC574A79BDA3FAA2BD2EDBF33B902AC43D74883ABE09A60F3E7FAF563DC3E319BE901805BE338450BE483455BE43732BBD7CF1823D76871FBEEEBC973D9E2B573D443201BEB8509F3E1B81973CCEB708BEC57F38BE45E880BEACD33BBEFD6290BD9537FDBD4E07DFBD9EF4803D842BC3BC2E44DDBDF36BC33EA73D7B3D7B472BBE3C045DBE4F8F4CBE35E302BDAC9E84BD4F1168BE4DCBDDBDA116383DADF265BD272D123D88CECA3E852A503C1908B8BDE7DBC2BDCCC27FBD4E8B8A3CB939043D4A7527BED514913D78243ABDF5E3B23DD3BBE13D9DB1A03EC6BC8E3B0E6D36BE29DD983C7065CBBB272AAA3D88A5ED3DCD64283D5F879B3D1077253C0BADA03D1264E73DB14E5D3E1B14A73DCA5882BE64ACB93D9A0A133D6F1C043D956E9C3DAA3CF2BC3D22E43DDB83BE3B0F82763D5C95B93D0FFD4F3E9ADFE83DF333A5BE79034F3C5082B23B7AB70DBC0B0DCA3D244CEE3C095D1A3D95ABCBBC640D7B3D02D3DABCC784143EAAC3C13D60A3D0BE0B751DBC6DF3BCBDD76E01BE2911AA3DB9F933B8667EDFBB6CCECEBD49F33A3C3C20A7BDB0230EBBD659FD3D18D1BEBE3D1599BD1FFF71BD5A15CEBD8F4B6EBA5D8106BE22F6D8BD660C52BE1BDAECBD074448BE1B38FFBC622D20BB794488BD559BF9BDF68469BEC1B14EBE5F6496BE63046FBE2C1B4EBEF416AFBDA87E21BE59B70FBEA909B9BD764E9EBE177171BDC2AC95BDE38E013C578684BC50C930BDB5B781BD85C0BDBCDC9FCFBB4DC48F3CE5A627BD9F4E17BDCD562EBCABB95BBDCECD13BDC8FF4EBD2E1E6DBC8C222EBD0671B0BDB900A1BCAF2787BC9717B23CA319F7BBED000ABD2932E1BD47A7C6BDB3DCBBBD23941ABE35B2C7BD71041DBE70BBF5B946A1D6BD6E14BC3C4F70B2BD0132CDBD9DA94EBD757F21BEC53B5FBE088127BE38256DBEC59836BE2F418ABD6F1D7E3DDCF413BE77CBB43DAB4AC8BDBA4D2CBEBE718F3D798EEEBD6B021ABEF1024ABE3E694BBE9C0CDCBD1A56DBBDE49887BD7CCB44BEF125BFBCB9C3E8BD26B8B7BDF442173EC78342BD7710E0BD09E883BDEC33E2BDB4C065BB98AADBBC055878BE938A88BD7B51CFBB6FE650BD3C1C8739B509293E0997C83C85F7B53D3F8F1ABD8116953DFBD7093DC75F033E9BA310BE5A9B673BBF0CF33CC56AA33D493234BC13583F3EC95D5A3D4E51DABD5299C73ADEB0B13D995BF2BC528BB53DC95FA1BDF83D183DDCAAA83DB7E70F3CEAD3343DEE095D3D77C2033EC7718DBEDC438ABCAF9BD5BB36682E3D5266573E90DA65BC5747053D84BCCC3D62389FBB6DFDB7BCFACAD9BC1539193E26C381BE1BBD29BD5C1F123DA58D923C4E6BC83D361ACABC345E1DBD6076253E15E766BD3FD16E3C1B4D783D2543F73D5C0588BE4F963EBDBE4A28BE6A7498BD604723BD742931BEF519A1BDA9E78D3D204B02BE0EC3C1BD4AB2CE3C7FB7E2BCABE64FBE701CC0BD614CA3BDF1991BBD49D924BEF9D10EBECEB719BE8AA5C33B201100BE2D4091BD8F8532BD392574BEA9D6D0BD9C2561BD2A0A29BEB2D921BCCB27A3BEEEFFC3BDE25689BDB2786DBD843F4EBDAA3E69BD826B9DBD5B5342BE59DC59BCB8F82FBEFA6BF53C81653A3D6AB05BBD3B6F1B3D1282353D735213BDDF85DF3CEF5B853DB259B13DF0702DBD64F9EBBC614C613DE64565BC7B03773D8310BCBDDB7F3F3C54B6B83D065A5A3D5845C9BC8C8AA6BB8783923D57A2BCBD8B5061BDBA8C413DE167E0BD169887BD36B2C5BD304416BD8B598ABDBF91693D5B27AABDC9639FBD6893D4BD99A513BE8EDF02BE0FEB0FBE6E51BBBDFE1618BED3C94F3C035C4ABE7BA127BE73E5003E968B0BBE2BA3B3BD701395BDC528FABCFD936DBD4FA200BE53BEF4BDAEF609BEE650673D623B97BEE81A3EBEABCF2D3E61242DBEB27747BD962C04BEB346ADBCB4153F3DE92BE5BD308FF13C616230BD266A473D4061B6BEBE39BEBD2A8FC93D689447BED9ECBABCB05CAABD89DEC7BC77489A3D8D785CBDD683A73DAA8078BCC82E233E262695BEEAC818BD82CF343D9C22B2BDCF12E83C7A00A0BDD3C8D43DB478AEBDFFB0213DD40ADA3C08BB68BDC0D8C73D5F6259BE037350BDE311083EF81AD1BC54F241BCF924D73BAD22E53DA50410BEF70C8BBC59AFAB3DE46141BC6FAFDF3D6510A9BD8650913B056A433E7ADA64BDCF66743DD5AA24BD9571103DE3DB68BDD3FF36BA078E203D0F9E00BD04D0673CC39CA7BBB1D727BDFF21DC3D1B9B33BDB7099CBC5A3E4CBE8C3031BDBEB414BD907F043D89E225BDC68C003D384E45BE46AF95BC4D84FFBC7065283702858C3A02BE153C148E91BEF59D17BE9D2C1A3C482E95BDCEC66ABD3A97A83C956D85BEE09B19BD256B26BD7FDE2E3D5F05923DDA356A3D815686BE473DE1BDB83779BD47A137BC08A53ABE62D005BD6D7882BEFACE19BCB05A923B94E18FBDAF14093D65B557BC5DBE3CBE797B7ABD78A866BD19D933BE39F5EA3DD188D93D37F54D3D4194223D65DE553DB49269BCE508C5BC107BDF3DB0CB973D47C28C3D26DD043D15F20F3DD0E4083E1C426C3D883084BB0857C53D74B1F13D9FDC983D9EAAB33DE068DE3D9A8A82BC970E8FBD6A1085B93061033EF4510DBB86AEBD3C6234B53D16E904BE1A1476BCFD2E0D3E15C498BC3C6C493D1794C93ABB5C993D356DCABDF44175BC444FE03BEB2485BD16A2A93D3E1785BE1321E6BD4D71693E711EB7BDA1BCBEBDE5A085BD600DDE3B3FBA7FBDEAC305BE8A7611BDDB8733BD2E52133E80CBD0BEBCA3AEBDF6E89C3E25B26CBE4BAC56BD28B073BB6F41813D9D5D9CBD57F10CBE97FC75BD3A7373BD2BFC863EDFB0C4BE5F68C9BDD479A43E243B26BED85D97BCF2521BBD9CC43B3E492834BDD267B7BD9EEC813D72A612BD6BB6723EC512D8BE5903E3BD66AAA93E1F7C1FBEB84447BD39FE983DDCA34F3D26A61ABEB0BD8DBC9A01A9B9604C25BACE290A3E26C67DBE4235C0BD8929A33E29CB04BD7A8B80BCF99E973DC71621BDCA259FBDA451E9BAE33F903DD64E4E3DA66CA63C998E573C7F190F3D413ABA3D9E408ABC6814D83D28457EBB81C99C3C45F1A6BCA78B5E3D9D096C3D98B340BC844908BE6A202BBC27FC533D6EB487BC8E7E26BC252CD43AFBFFB7BDB99446BDF7CBDF3D4E0907BDF99CBA3C2A2AA3BC25993DBEE801203D1C688CBBD8BDD6BDF985A6BCED69A23C93A879BEB92925BE7D0AA73D3CC31F3D11A0CABD0EAF833CA3A534BE068B1B3D18238D3C0C4E00BE667BAEBB07FDC7BC10D3B1BE9279B3BD1BD8D33C6CDA7BBC93731CBEC944BCBCFE300FBE2B247FBDC6CE1ABDC1C522BE562E20BED8DFF2BD6095D6BD8192C63C2CE2EEBC34AC43BEEF64E7BA49EEC1BB92E2F73D2762C03CF2C8C43CAB383BBD637C583DACD0BABC4EE66DBD06C60F3E2C35A03D52EE7FBC4E49B13D9FB52C3D4542803D3E6F2D3D7B39783D49DACA3B9655CA3DF116BB3B3E9105BD99B4FC3D6870A53CDC8F053D02A4043DA709753D3D5B1B3E69B25DBE38DF0A3D9D83BE3DD59126BCFFEB083DF65DC7BCB3F39E3DD131E0BBF338703C8AB40A3CE79B063D32AC8E3D89498CBED20E473DF978073E2BC2A3BDC16E6A3DB88D2B3D5E32203C97D22BBE618617BD73F555BDBB8F42BDB116A33D44749FBEF512C9BCD60C6B3EC419BFBDD6CF72BD5CF534BD50BE063BC9A279BE4F24B1BD7B7312BD737D9FBC8FE8793DB2B4E1BE27B9EFBC8C74073EBE9321BE37DA01BC7C55553DCD8BCABB90CC94BE9236D3BD4DB595BDCCD39EBB654EF33DDE699CBE6434C7BC3E1E133E2DEAF9BDABDE8D3D77344E3D46B8C93D52E614BEF197AABC5DF0363D1A9B8ABC5F1BCF3D0A529FBD7B02033C9784453D0DCE343D0D02BC3D7D3CFDBC5E7785BB85DB15BD9F351F3DB36456BC9329383CB2D28F3C1502E53C324EA63DEB9129BCBE86C1BC2E60B33B6112AA3D21402D3CC8909CBCA40C9ABC943B8F3C377B023CD39602BEE113ED3C5249063D442E00BED667993D24C6343D70C657BD2016A6BDB022DDBBFB72573C50B0E9BCE85B643D930937BECD1DA73CCAC52F3DD3B782BE07C5DA3C1E8E213DB3A74BBEF93229BD7EAC09BD87459BBCC39878BDE55AE8BC4856F0BDBAFE253D4DF2723C86C956BEC06885BD9F9A00BD514F2EBEC900833C7882F7BC299D06BE493BF4BD1211DABD821C29BEFBCC86BD8DF94CBDDF8F9BBD5224F3BD5254ABBD602863BEB7A8E1BD86A685BB4E453BBEA6101E3D77D9D5BCB6A95E3B60F8573C23819A3C40E083BD88C48D3C73D2BF3C9A826F3D5A6D2FBD771F93BCC5789E3C66EF8C3CD733913D8F81DFBCA743B0BDDB78003D5753873D72BDB93C75DE6EBCA8CCFA3D3D44693DD9042D3C1777903CD8D2933C65D7283D77C3B13D2F3F6DBE025DD7BC60E4163E7C1819BDC2362E3DB30E1E3EEB1D353C11F321BD6A996D3D828A1BBCB893E43C7688FC3DB843FABD41A3F1390E22053E83975EBDD637D0BC6C2A823DA12F913DAF79F4BD76CE1FBCBD1E423D46AE413D9094DF3CF2328CBE771E37BD6A49413DF4FCE7BC0BF0693D37298B3D45DE163CE4CEFABD0AC4033CD7DD4EBD37AD833D21DB4F3D0C7F61BEEC6C9A3A02CACB3D534BA3BD68D2CB3C3651EC3D8EE2F03BA93D96BEA0595E3C3A38B7BD09E0923D01516C3DA5637ABDFD7AEA3CE7588F3D2DDB5EBC5FC1C73D3ADAF53D261B5F3DA73F76BE2A4B743D67FE933C3A196FBA6DB1823DC56C893DFCE35C3D869A773DDA4CFD3B936CB73DA473D43DAF4C73BB90CA03BEFB1DE53CBE0B3DBD90D686B9F15ABCBC379A8F3D6DB049BC1B060EBE57DA293C94BC40BC24D8293EAE7F38BDF00A8CBDA111A13D062F67BD7FBC5C3C886BABBD164EAFBACE73B63D5C2E81BE74CD6A3D26EDBD3C465BF8BBEED3CDBC5BFE13BEF72FBA3BAF2392BD9CEC56BD2462E6BDB74BEB3C0D9157BDED4368BEECA9B5BCDE452FBD304294BD2E860A3D960D10BEF47508BC93A61ABE921856BB49DBE3BDA0FE1FBD18ADC1BDDBCA1BBEC123BEBD16DFB1BDEB4FD0BD2B8548BD4BAADDBD258908BEF0B8A6BD97B251BD2667BBBD44E08EBDC259FCBDB13FB0BC966B1DBEB541D2BD1F00E9BCA2647CBC3F5972BDC5D6E8BD77BCEF3D9ED84C3D5699A53D690A3C3D4BD19A3DC85E23BDE086293DD999793D570C953CB997A43D40FFE6BC182EB83DD0DD783D1553A63D3A654D3D8B891B3D9B00713DC40E6ABD25A1E33B0C5DEA3DB336E93D96F5823DE7ABFE3CA493693DF3AA01BCFE7CC23DECD3383DD9C24DBDB170F9BB9584F53D8F259EBC34CBFF3D94031B3E93C5323D2A0A523DC70D8E3D73BE483C7713A23D7D9FB0BCA5F598BD7A38573C308A843E0F3787BA6EC30D3DB4CE693E0F50EFBCFB234CBADA2DD03CB31C9FBC573BC33C28C6883D697FEDBD1564323D72FA193EABC7C83D20D4A33CEBBE9E3E640F403DD7F88FBDA26E80BB295B4D3C25B5623B7E77F0BC4B818FBD38B6CD3D01411F3EB8334D3D47BBAB3DCDCAAC3E8FD48A3D5C4F03BE29A5693D23DE293BC072113DB5D1C2BC062D253D4E0D153AE1519F3DB024EE3DBE722E3DC227B03E04CD463D3AA367BE1D961E3DE8A769BDFFACBCBC3E1B393D842E8B3B1C2F9A3C474AABBC4FDB653CAF88B93C8D7D913EDAD4BEBA5018E5BD28CF0E3B1614553DC9D8573DCF7BCABC87FF5FBC54E09EBC1F5C2BBE9AE8473C5B7D4E3DB3E3083EACA1AEBC4C42F1BD9C92473C4F76E93CFC2AB4BC723C50BD540BED3DB04F453D67B430BEF984423D6B8DAEBD48DE153E0961CDBB94A205BED7E3323D61648ABA3AAA5CBBBE256B3A5A0504BD6D30B7BD37DF60BD669288BD0E0862BD3D0FA8BCB6AD993C5E7713BEB1DE84BC319E04BDED80A9BDFBB2B8BD804020BD0595F5BC9FF727BDB2C59CBD72AE3FBDC1A5A6BD1ED246BDC5FFB1BD5819A5BD77DBA2BD4E7D2EBDF67F02BD440EACBD231ECDBD3F081ABD70359FBD9C3FD5BC3F3FE1BD2B2DEFBCE84747BD34EAB0BD4425063DCAC699BD8972D03D34A533BDD3960F39C7B5C3BD54B1F93D11DB4EBD935E32BDDC21B43DE8C42ABD1D531C3D1538E93D25C6D9BBCDF3143ED900033D3093B23D9305B9BCDCC1B93D00814C3DBABAAFBD27880D3ED273993D81C7113DAF4E263E9B925C3D3EA7B83DE38692BBE35C103EE1D7FFBC41929D3DDCC7503DEECE50BDFB52223EF8F6BF3D5BA2DA3D09EF903DD7690F3E7D02913DD45632BCEF73CA3D603EABBD3C15DD3D4D5DF13D053A8CBDA4C00F3E2DF30B3D0E0A323E8918F23D5D87DA3D4723883D3DE6803D2182C83D4761C8BD03BAE03C39D2253E564566BD124C6D3DC232D83CD00ACB3D9756D13D640D093E27AC433D470F323D7FEE0C3E999C9FBDEC7C0E3E55E20A3E7A307C3DD5448D3CD91D6DBDB3E8C53D2468163D4248743D61C8853C7650973D88E6813DCB27A8BD2D4F1F3E5D61963DDE3B9B3D3E71863D83CFF2BD336CA73D771055BD2468343DAC32C83B6FE6FFBC6DE649BC10527DBD5F510E3C7658BABA028C0A3E0E5D803D0375B6BD8CEA8C3D01BA0A3D5AC347BD4EB8203DE370D93CF9542B3D8CA23CBD3B00873D9C84AD3C609A513CD7A8983D98E9F6BDA610A93D6740363C8A5987BD635BFEBCD0A967BD822DF93CF2F688BD84A292BC0F5751BD1A8CBE3C69DD3ABA9C7FABBC8CA05FBC0BC8E7BCC78BD1BC8A84ABBD75DB26BD62EB9FBC292BC8BDCC3C0BBDFC7F43BDC329CBBDB63D8BBDB753BABC68C7503C199A9DBBCDAADEBD6013BFBC32EE7D3C99A88DBDA15EB2BD3A8197BD163801BEDAA044BDE4207ABDC02ED6BCDF6A9EBD6A5D74BDE99506BDA651F1BD0A9B8BBD0EA3773C793067BDB1F32C3B86B0ACBD9094A8BDB199DEBD84256BBD8D81C2BC3B0D503C8EB40FBD8F0BCCBCE8A8D5BC6EC908BD2CA36C3DF1B0CDBCCAC54EBDDFBA223D7EA6513DF25DF83C71D97FBABA35B73C92DA89BDA188CCBC3E9D67BCA28DAB3CB41C56BD352A6CBCFCE6AABC06110B3D8A4B23BD1CD99ABC97FE9DBD898FE9BD7A5E04BEC6661D3BE7EF26BD1732B9BD744F16BD348C46BDDDC5C0BD4169CEBDD3C48FBDB0DF83BDF56FEABDB15F05BE113B09BED3976BBD173A0EBE0E7031BE96ADF0BC9D910FBEA42661BE757238BE66A856BDD674ACBDB2865FBE1DC32ABE38CD57BE7D2424BD787732BE574254BE7D82D9BDBBFF52BE6CDA83BE499978BEBE9AF9BCAA11C6BDAF3C62BEC01F29BE0E0185BEAC3A2FBD646089BE75D274BE049005BE2F3730BE2F6A59BE8E1482BE1A2306BE87C791BD0BA455BE944CC3BD8E0D3CBE38E49FBDFBE628BE8B5502BEAAADD8BDFA3D10BE387842BEDB8B14BE7CFD38BE0F76CCBD0098F2BD55A71EBE831D0BBE7E64C9BD508103BE2A7552BEA389AABD41747FBD9DA0FBBD2A1738BE1D47C4BD394722BEF53503BE3B5D1DBE67904ABEF02420BEADE261BE152377BECDE4FFBDC6E033BE89295EBEA0A32FBE0ACCB1BDB5E1FBBC578468BE451150BC24B3E9BDC273D7BD7AD252BEC12E16BE5E7AB5BDD16E50BEA5ED06BE89DC08BD18F6A3BCE3F78A3D6FDF903CA755DEBC55192ABD51AC9DBC2EC5AFBC702FA7BD7864393C9B826DBD9CF8873BE2FD18BC463140BDA2E5F23C9C1AC2BC7C1821BD55EBB3BD8E31D9BB1B12F4BD9182DFBC7BF3153C457BBEBDDADB95BD94FCA2BCF1FE11BD19458FBC5ABAC3BD144315BC227909BD86DC183D632DD2BD285DDDBCF28A39BC407DDFBDDEF1BEBC0A8B09BD311D8CBDDED645BCDE3C633CF54B02BD532503BD8680BABD770B26BCF6AD69BD6D3C473C52E8813CC3540EBDBC48383D6DB6CEBD79F20A3DD048E5BC61909EBD18C9C8BCF6AC8ABD2F44E1BD1EDA84BC1B124A3DFC28B5BD8F6C093D618456BD5C36BDBD476AA6BBEB95B9BC8AE55CBDC77112BDBC512EBEBEE4123DCE5C4FBD7F708BBD0110043B8937C6BD2559AEBDC3A5F7BD7CC7EFBDE77053BD1159BEBDBBF4E2BD9DAA55BEAF624DBC465A57BD05EE0A3D82FC0CBD494E10BE13A723BC2E04A1BD4CBB53BDC68FC7BD9ACB02BE69D20DBEE6F321BE589CC8BC014B2DBE7BA251BC1AA3A6BC4BB942BED6E923BD03A900BE6148DEBC111934BE3EBFA7BDBDD20CBE8E2055BE99D7AFBC7A4113BE766390BDA2E7073C312F31BED6CABFBDD00A20BEC081163DC80DC3BD3AAD3EBDBB8CFBBD64409CBEB799DC3D116C98BDFFD075BC44C32C3D26A2BDBDFFDE09BD7E7685BE8B11303E3F3195BB0847A13C948FE8BD22D7ACBEFD11343E097E8BBDCBA84DBD927B6B3D608EC6BDAD8B53BD06F130BE20ABB53D1B6061BDA8F4903DFA4FD2BD75003DBE15FFAF3DF1DEC6BDEAB63FBD92D286BC1173C9BC1756163C2FF089BD8A3D0E3E91999CBCA9BDD33CD7ED883CCA9B43BE921499BC9C391C3C4E3C34BD9FB097BC2D3E9FBDC15BCE3C512B2CBD2B1F1E3E04D7243DEBE6993D2FDB4C3C37AF55BE9901BD3D4EF0723D3E7728BD0A6A293DCD3A273DA9FC1C3C6634023C29B6883D4477EB3D480E833DABE3883DA711B8BD9E959FBBD212AE3DB9B04D3D41DC733DA00D233DEC0ED83D8818523D57DD963D5D2C873D65BF62BD92FF353DB3D2AFBDF204AB3D8E94AD3DF256603CD7B5D93D0992CE3DB33E213D555E413CE51C403C6856C13C0379A8BC2F3376BCE61D913CB2A022BD953FD6BCA02A1BBD8886453C865400BD56CEC3BDFDC606BC4FC10FBD1568A4BDAE9A07BD1BACAB3CE28FB1BD522028BCD4D57B3CCB18AEBB4D1214BD64DFB73BF57FEB3DD4EE85BD66A523BD2F70913C2D2A383C8E6B783D10FA33BD9EB7D13DFAE2083DE2374C3D0029433DCBF93E3D9CD0D5BC6A512ABD4BFE1CBD673041BDB67C973C34D7B7BC656E1BBE55DE383E5211EFBAE0EEDD3B4BF5B53DE8570EBDB093FDBB337A67BD902F8C3DA8CDCBBBCAF7BABC6692D6BD137D0CBE9ABC813E7300A7BDF824973DFF990E3EBFC3DDBD310E01BEF672E9BDC81FE63D3AFAD1BCA8DB41BC848A14BED4E682BE1CAF953EF9F1B3BD3C27D6BD86FF883C1BC2F8BD856C1EBE1F411EBE23E2253E3FD5CDBD13C2B1BD2AB303BE3380A2BE3800B43EBC5EF4BD607E3CBEB6FF023E24D724BE6BFA50BEF3F284BE36CF943EFA5A62BDC3D82ABC49BDE0BD35CEBFBECD098F3E53E7E4BD511B23BEEC70CF3CB27D0ABEC88E36BEF10A7DBE37ABEF3E884099BDA1A922BD462C07BE54E6A9BEDB17273E0DCB7BBD0AAEA1BD11E8E03CCBA72CBE30A7A5BC804685BD496DDD3EC46B4DBC240D35BD70E689BC95DB84BE8BC1CF3D67057ABDC068CABD2248803D15D016BD4FDBD13DD2380FBD761EA03E07F9D3BC71836D3C86D6513C39473DBAB8989E3D48C6053DFF2998BDE578813D5E75B23CDE9AFB3D3739983D4FEEAB3E29CFE1BC3B151D3E3CDA8E3D29A6A53D2CA7943D4A688E3D0BE8263D1157853D98A09C3DA1E7003E0363153EFC85403D082E143EA64FB03DB7778D3DEBAEB33D69A7C43D44A3EA3D8A89743DC650E53DC292F73D254DBC3DB4C7CD3D62111EBD661C603D254DC23CDA81A13CAFF485BD3E10C3BCF1C7ADBCA3F3E43CC932DDBCE5A8D9BD65A9D2BCDA5ACEBDEBA4B4BD0F78A5BDC58438BC67E315BDB3FE973DEE039FBDF2D8F33C63CB37BDDCF4B3BA85B2DCBC26E7163DD2F9583DE258153CAF1534BB4329823A4D486EBDF2CC863C217A793D260A123C0305933C1AA6413D017DBC3CB54C8BBD4FDE61BD91873F3D149972BD8DC24E3DCE7D44BD9415D1BD3DAC2A3E60823DBD3EBD943CDA7DD0BBC29F53BDD70DFDBDB6BC6EBEE86BE33D99DF3DBD65334CBD55D78BBCF4A76EBE1CE1913E98FD60BC9AAC64BD7B4121BD66A936BDFC9736BE53D357BEAC270D3EEEE659BD721D1ABD2F73F3BC962CF3BE22624D3EE91838BD663293BD9152603B711A9ABDF8E333BEF65A9EBEAC88703E262AA1BDF6183FBE3B88D9BD20671ABF8503883ECD9FAFBDAE7BA7BEE59140BD96EFE8BD369A1BBE1F81D5BE66EBC13E7E91C9BDDF4D4DBE0B5AC4BD6AFF16BF0C2C653E7C361ABE6AECD3BEA1A0CBBCA0C19EBD206E9DBD62A7D2BE84A2C73E3523A7BDFBCF37BECAB5C3BD825915BFBB5B5C3ED708B5BD8FA281BE84254F3D8B361CBDDD92293D8B90A1BE3A579D3EA5634ABDDBA223BE029C69BC9B71C4BE02A8DE3D3D2383BB114E42BE500CAC3D57ABA4BC2C70CD3D78B477BC2379983EFF750A3DB1CA21BDB5C7403B0706EDBDDC78F43D3F11953C2ADC77BDCE19B33D8EBF1C3C96CD2E3E5CED9EBC14B1583E72CE233C4862A23D2C64A13D85A13B3C3DD5303CC5974B3D190F88BD62799C3C871B1CBDB07BFA3D4E03C73D8CE5B33DA9A5CF3C5DD3223C2D3B913D62C4243D12619DBC48164F3DBE3F6C3C130CCF39980B8D3DFA41FABD7970203D35B8C93C559C8B3D7157F3BD5FA2F1BDC8081FBEEFD793BDAAE818BDF20327BD3F04C5BD53B95BBDE00F75BD5B5300BE01571ABCF089BABD936FD9BD41BEF4BDA8D657BDA0B4ABBD2510B4BDED229ABD4DA385BDD0009CBD570601BEF30C0DBD5A9E23BD048EA4BC2E8EE5BBF41B9DBD1606D4BD40E2BDBAF51E88BD9E6525BD8E0484BD07235FBD975B7DBD781722BED8EF803D62AC99BD29131A3D92D5B3BCE7B338BE1DD1AC3D821E9DBC27282A3B3C0646BD14D42F3DD10DE53C5CD361BE214B0A3E426E1BBB0C6A633CC7E6743D263691BE3308213E90A9103DCC9B273D4D42A03D41956B3C342CE03C820754BE3E7B653E3FFD853C073C6CBCDFB6F13C6853A8BE4B3E243E6655E33C82E70BBEEE5DC63D7557643D6C7910BD9662E3BD63DA893E8480293C35E05CBEDB92F0BC1FCF8FBE47CD823E9CE53EBDEB02AEBE4B47973D566F1BBD333E6ABE66C805BEE890413E148561BD6F9620BD012DD8BD95ECC9BE342DEA3D200F0CBE1E40A6BE5F7133BD166087BD3D1AAEBD795396BE2417A33E84BE05BD0C6BBFBDA691FC3C4ACAEDBEB860203EB6153B3D3F6078BE934BCE3DEB98F1BB4B285FBD08864EBEBE21403E179D953B1CA103BE104DECBC1DFD9ABE709C173E9FEF383CB2674EBE0BE6273D09A50DBC8C71D13C733314BDDD7C623EFF605C3D0063B5BD85FD4FBDDBE8E2BC48CAAF3D1588183DC17FE7BDE074A23920E2CBBC2FF66DBB075DF3BCA6FDB63D592225BDAD39DBBD2B3F4FBDCCEA183C91A75BBDA0060CBDF0E945BEC5124B3C349AA7BD0A1C1FBDDFFF833C42CEA9BDCC2CE0BD4DD36DBC9A9C85BD5ECCFEBB4218B2BD40B173BD419706BE07529DBDD80A3CBE9D7589BDEF00943CE95C45BD9D35BCBD4AD009BECE2F0FBE17FD9FBDC191A53C5A932CBD163908BD97EC2FBDF59B9BBD51110CBDA3BA83BDF5B199BD58912BBEE715B8BCD03A67BD7857C1BDA4E3B8BD4756A3BC88881FBD7671E9BD8461C1BCACEF51BC7AD3B3BDC26524BD835021BD84FFC7BC3A8E853C354517BEAED731BEEACC58BC2389B9BBF08CE8BD8FF4C13CACA8063D08C273BE7326CA3D95E889BBC812EB3DF255853D37CE02BEF1CB6C3C3893C03DA12ECBBD85E3AD3D7D57EB3D691F4A3D0D7CBBBDB526DC3D937F7B3D6EEAE43DAE83203E893AEFBD1B220A3EACFAC33D8E1518BD0D01EE3DBF0F913DC3ACD0BC0FA08EBD1704EE3DA5EE053E7241593D411C873D49E36ABEB831563E008A243E7117E4BCE6ED163EB664EB3D0DA5313DD069123C03FE373D37B0A33CA12903BEC0A57EBDE09098BEFD1B2E3E6688FCBCAC96ECBC6E7C813C86209D3C4A569ABADB68E9BDA251A3BCA4FCB7BD58F63F3D9FF715BD2C1E82BEE3D0D73C3C00F9BD412EC2BDD7A100BE23C239BD3A01AFBDBE8385BE8DF1613EF828883C2C4A503C9AB8083D068078BEF570DE3DDE78A23D4D4441BE8879823DF640243DD7F240BDA22015BE7A587E3E93EEC23C9F45D9BDDA10653DE2385EBE17EC003B52A2873DA094BBBDEAA3223D980E813DA0900E3EED62B5BDC0D4213E9E89923D25F9FCBD93C60CBDFFA68CBDB4384F3D2767693DEA82963DAECC89B847E80C3C38A4193EA70FFC3C660914BE64F080BD125E51BE11A787BDA6EBECBD22147CBC0354D8BD3DC1703D7AF00CBC8A49603C5CF6F63CF88CA3BC1DB4F4BD165240BEED3ECFBD17B61DBE40ADD1BD7CC16CBEE40530BEFBB0CABDFBBE42BE520901BEBC25E7BD040DC0BD5A698CBDC0701BBE82B4D5BD924555BDCB8688BDC7634F3D3F7CBABD0F70183D08E397BD231D89BD19994BBC471ACCBD7D20AABDDB4988BC587D893DAE1B6C3D0A5933BDADA806BE2137123CD9E239BD022F49BEF25FA03D21034DBD2EE4B0BCE76DC93B53378E3DC1ABA23D2A2BA73D970BE6BCA91F33BE5C1E27BCD08D94BD2B27433BF93CD93D8153953C04525DBD0D798B3D90F5E83D4E75BF3DC409B43DF8F720BD36339CBAE519133E91C8B5BDB21DFA3D448B8B3D1893E5BA0BD928BD13FA8B3D7692BB3D9D4DD43C961AB13DB864613CA137C03C5AB0973D0AC347BE95990B3E62CC023E0FC87D3BEEE3153D989636391240853D506F753D65DAA63DA31EA93D1E6AB03B273AE43D83BB3DBD421AB73D27766F3DC6A63ABBF2BC273E51B140BE5E1C803D06BD80BC47C9453D072006BD368302BE32C41BBD6553373DDB8C9DBD967D2B3D18CC94BDA45E0F3CCD0B14BEBC3CE1BB7C7F573D945FACBB2A4501BEA13B93BDF732DDBC7D837CBDF489ABBD6D121B3DADE823BE86C959BE3F9B2A3EE3C4803D82A6583DD4BB013EDC22C1BC6451AD3D7439863D9FAEFDBC7B89873B002BA83D6C9992BDFB235039B757F73D3B5EF33D03BD353DEC15DF3D6A0A7C3DF140733D0077973D490BE83C3407013E1E14E13DB353A73D5B36123D5DE39CBCE3F0403D20D4BA38A4A15A3D179CED3D5B0DA73D4781343DF9C5B23CBFF4DD3D4A78D53CCCD9073DB964AB3D6FD82CBE32F28C3D558859BD4827B5BC16ACC53DC5539A3C9304AABDA0CACEBCC6A8103C459BB8BC3C7743BDEA10733C790A19BE076C12BE9F5A35BD9CF910BED1E011BE1C5425BE0DA501BE792DDFBCA6AC2FBE992720BEF6B1D4BD1755D5BDE9CB1A3D45E00EBDA4A288BC595730BD2B59863D2F4A7C3C6D4A0D3C2C9EB43C70ACA3BD68AD893C8FD5C1BDFDCEAB3C80438DBD5EAD78BD8AEB1D3B2AA77A3C5E58113E48D0EFBDDE13AC3CDDB3A6BBAF1D383D99AF123D0859E4BBA8B29F3DEA884E3D83E8CBBBFD7CCF3B0856D63BA1CA113E3B3340BEB8F49E3B5FA990BD346B983DDB32693DBDCDADBB9F42A23D8A96DD3C95DBBB3DFF77C03D1993CB3D24E58C3D3B742FBDCE48143EF3CDD7BDFEDF0A3D1DF1A93DEBCD0BBD765FFA3DD4F93D3D3D08043E834C563D841DCD3DA1DCCF3D2DC384BD9A70023EB01DA9BDF85DB23D07D6643DCD66ACBDCF95083EC5A7FDBD325F7D3C352CDF3CBD5089BB18B92B3E1D3692BDC5CB993D188BA03BB9BD31B945AC2C3B6C2EEBBB0EA5253EDB2926BE421F953D1704D33CC40D333D7C69063E598E06BE7757A23D5C83FC3D3EED54BDEC7FD23D9770A33D6023913D44DE0FBDF57C2E3DEE50963C445A223DBB51883DDE4684BD02E39D3DA46DFFBC4C15DF3CE39B533D5A942F3D4C01CD3D3877513DCA5C0F3E01C71F3CC75BBB3D025B043E589D6B3C6422573D4B9A79BD49BEBD3D52E7FA3C9F32AF3D347E003E956D8FBD86DD6A3D3096973D4763A83D5F30B83D5D02F03C2E07023DE1DF473DCFB0E53C4892813D7590493E0C53A83D0E3737BE167DF43BB96116BCC7A48ABC50CD203D7226ACBC49F7513D5B62E83D83D3AB3C4A09273D3438EE3D6CFEF7BCE3F2E6BD8B5A37BC0350AEBD8FB854BDA2714ABDD5344ABDEEBF1EBD63529E3CB9CA00BE91316DBCD79CF3BBE1DF1EBD033F03BCB56EDBBDAF0A09BED0F103BEDE8133BE8EE804BED30834BEF0B401BD7214DFBD8612E9BD7BC814BDC5352DBE58C2C6BBB2090DBE04AFB4BD17D979BD9DE502BD29655CBDCE422BBD5C292FBD3DEA40BC00DFEFBDE20958BD03C444BD93D539BD958C80BC75821DBD0A5188BDD667DF3C7867E0BDE4BA88BD7652EDBC1759F23C93C5AABDF643AA3DB6C1BABA80E529BCF81096BD9BB5EEBCC9E56B3CBDA59C3D1B1CF6BDCC8A3D3D7EACFE3C443B993C15E5BCBCED8E5F3D9F59943D586FACBCC132603BDB9246BDD4531E3D20E6953DB8B70ABEBF25663D63823BBECEB3CCBC9B2414BDC8A02BBE1E9BBDBC2F8A9BBD76F71C3D5B06B2BC893D5DBDCFB76FBDB93C2ABE9C0651BB5EF8BFBDB4A853BD91FE98BD71E58BBDAB6BAF3BB38806BE8E9420BDED4DFCBC8C912F3C1182233DC1E721BE3C9EC6BB5DBC21BBEB538EBD1E6A183C8F6B05BD1F9FCABC83D2CEBDB41EBC3C14896E3D21BA46BC1FF0C23DECCF0DBD9AE68E3C25BB643D1F7F6BBD6720583D9587D0BD4ED4AE3D2B24DF3D8F975B3DAC37DA3C0A32253D8043093EF978663DF1F7BC3DD34625BE9E790E3DAADF5E3D2A87ECBD4A74C93DA35C5D3D8A02513C7E6F923D7D673E3B378AC43D1B8909BDC80D6A3D8A6F05BE9E6813BDE035543B5FA0B9BDFE775D3D118527BEB14131BDB06B933C6DCD36BDE6C3C43DF4EC95B81BC0373DA47042BDFBD30CBD7C130D3D98159D3D831CAA3DD8F527BE13BFD13CAF89ADBB9187023BDD87923D6C22F43C421847BC13F8253D1AA5053BEBC4B4BC49793F3DD2BA303CFD5D01BE6256DEBCD80DA63CDDC3B9BDDBE4013D0AD488BC8773BABD0DE4833A64D28BBDC6CE00BEBA27F5BC345920BDB0644B3C9965D4BD362FDEBD2B0627BE51E1E8BDD0274BBE9172D0BDA4FA843B540A92BD043C26BE64FB61BDCD310DBE2EC85D3DA2E3CCBDE125B9BD549458BDE1E5423CC0354ABDEB5D62BDBE609ABC981B02BD764B82BD1AF69FBC53D5CBBD6720A83CA37AD5BD3A2C0DBEB0AF9BBDBD28A6BD4163BB3C945EB5BD2B0B5C3CAE50ABBDD6B6DABD2BDC31BD7AB1A7BD7E203ABBC22382BD1ED1B2BDAE9BEDBDFA88C6BC25D3ECBD139F65BD00DA6CBD8851B9BC37B4BABDC1933DBD5947AA3C676FE6BC5A15CABC2F76FBBD5C1167BD43C018BD628A97BD9C5D79BD139080BD6EBB81BB24A185BD05A6643B2DC4B03C20AD4EBDC70C82BDF1A1D9BDD557D3BD700F20BDB16D8FBD73C5C0BDF0B20BBEB09EFABC629DD3BDEA61D63C27302DBDCF78E0BD08DB8BBD63AFD3BD6AC1D6BCF98D66BD1EAB893CDEFA06BD4DE346BE7683C8BCEC7B0FBE04DB36BE719FE8BD3B85B73C645F3EBD9D842ABCD027D1BCC5730BBD6640C23CB4091BBD5DE7AFBE3926123D104459BC88DC47BE74E3353D6BC08B3D49A779BCB9D7BF3DBE391BBD3D6A80BD3C02D43C0CC1BCBC331BC1BEAA4EA23CCC2093BDE75A8BBE91DA453DE34EDF3D2E8D813D0155C8BB5DBAE5BC3A4B73BAD218C538C2D623BD07E40CBE5E3A93BDC511E4BD1716B3BEBCE21CBDA098D03C657EACBD2101953CF99E06BD36C66EBBA2B17ABDF3A2D5BCA3169BBD98F671BD973364BD7B0F8BBE20CAB03B19CCFFBCE47F2EBD81D5F7BA6A9642BDD7DF85BC9EDB2C3B52F864BD5D3274BDED9430BD6B2F8FBD3EBD88BD10B10CBD3B4F11BECA0FA5BC6144DCBD345B94BD897A49BD4165D1BC7588C2BDFA0418BC1A13E1BD94311FBD1C5B4A3DA041A9BDF317CBBD7C8CACBDCE9244BE73B737BE7BF01CBEDD7420BEB86E27BE6E1619BD96B947BE185716BE9D5782BC96A718BEC61E603DCF9E31BECD45C9BB8D302CBD9322D1BD9D506E3C46B7163BF2A8723C9AA5AD3AB3BDD9BD87F29ABDBDFAC5BDA96D5BBDF5EADCBDD950C9BD0764FCBDF6FA00BE8D6C29BC632DAFBDC686BCBC183F16BE3D042FBE9C97A5BD2F7945BDC7ACACBDBDFA17BE93D1CBBD0AA72ABEAD4834BD4A3150BD31E939BE21B46EBC42EFD9BD63A14BBDFFBE1C3D0EB63FBDD46680BD914780BD5EFF19BEAEB47EBD733611BE2674EA3D06D610BEC7B8DCBCF0F436BD0AAACFBC6CBD923D6C28E9BDFC07C83B1F7C6DBDF854EDBDC6B7DABD2FA769BE97050D3E4849A9BDF233A3BDDB9E103C0F20C1BD49F3173D48C54ABED60476BDCCCDDEBD3B4713BE943498BDD3BA83BE5238093EDC2230BDAE29A5BEBF0E4BBC9FF089BDAB3D2DBEEFF334BE64D33B3C03C1FBBC3C2EF9BD4D5310BEF37D23BE6465AD3D3B63FFBD4015E8BE7C7A79BC01ECD0BD0A224DBEE23518BD11650D3EBD4EC4BD4DF515BDFD6A96BDBDC20CBD6DB3BE3DB56B99BD842BC3BE66ACF1BD11EEA0BD52DFBFBEC334A9BDD609EB3D465553BC27CD6FBD1B2769BC3B0019BD1EEA4EBC1E0A98BD8888EBBDF09405BEA79497BDACC4B1BEB3CF833CEAA0633EAFD076BD99FC95BCF456E93C68CEEB3CF831AEBBFB668D3CD986C03A5776D6BD8E0A0C3D929666BEEA7119BDBF36173EA91327BDAC241A3D3CA95E3DFB5789BB5256E5BCE01AEF3CEAC3903BAA0CBB3A4C6AE93CBD5B86BD0604C23B080A15BDA1B2A53DA5B8D3BC865C633CF7B2D6BD25AD563DBC5DA7BCCE03C13C58B53D3B01F0BFBC7DA4FEBD3D768EBDE0818CBDAEC4323AA7E5C8BDF19099BDD6B5DABD681396BDD698E3BD91B327BD6267B9BD22360DBD5907B3BB267720BE0377323DC1968EBDF9BA273DB1B19BBBE915C8BDFBBD0EBD26E301BB7ADDCCBC04412CBD7530A2BDC8DD1ABDFD3F20BD39C248BDA14580BD3CB2EFBC2EEC54BD5D3B2DBE466C2CBDB30376BD2784093DFA32EBBD7CF143BB7BBF17BC444921BE19FAB0BD565003BEB54BE9BDC9EAA4BD83D203BE5FDD8FBD599823BC5F50A038C01409BE6BA28DBC6BF9F7BC96700CBEA4FA02BE570DADBD76B280BD5626BCBDB330ACBD675A493D1721D1BDE9C786BD2DA0853BDA8714BDA517B4BD9D06D0BDD41AD03BAFDE94BD8DC7CCBB0401E4BC894E14BEFF878D3D861C4D3C75452BBEABA1853C3533C6BB631E00BE0235B4BD0FDAC5BA836418BD238B63BD102ACBBC1841FFBD1C22263E7338ADBD702E2EBEB7174ABDCC5B54BD61059BBD6A1A8ABD17C23F3CE71292BC6967CCBCBC95EBBBAF20EFBD1982103D43F9CEBCF14BDABDA32C30BD68B601BD0CEB42BE164992BD7FC3CD3D496E15BD4AC981BB89F0C7BC3DBF69BD69B2E73C43A731BDAA5B6ABDD6F6A9BD069FCEBCB87F35BEA9343EBD5BC1EC3DA2A1DA3BB7ACC43CF06F0B3DBA9EF33CCB46733D0E3059BCE77D45BDE98066BD2762893CDD23CABD16EB21BD6607063EB19604BD264B9F3DC70F3D397503E23DDCAA473D98D4543D479E873DBE8F4F3CB4B4E3BCF5908ABD51143B3D39F08B3D2DDF463C52D8BD3CCEC9343D4A36213DFDE84CBC373C213D1BEC343DBCA1793DE9D5543AAB78103D2B1F963CF621873CA2F9063D877C533DAC47CFBCDC1E7539A8125D3D533E3CBCA527D93CA533583CB26354BD9659023E4822EDB95559013D065E71BDA2B9AEBDA22124BC0D9A87BCBB7E33BAF4106FBD487C8BBC8C2436BD003788BC89AE0BBDB198263C8EDC653DB4ED623B4AB727BD02B19C3C1C77BCBB0504D63CE2E02739507B553D48C847BDE45AF73CB7B3303D067C26BD0A61523D5A17503D4E3E593D1E8D9ABBC0F6EEBC1D0198BA6DA1E33BC41E053B750A34BB36C8F7BC84BF71BC258D8F3B1850D0BCAE8F68BD6140C5BC44FD6BBCF708B2BBF55E693DE11C85BD058B083DC3D653BDFC2FC4BDF0B6A6BDF48FCBBD796A2ABCF86B78BD828C51BD97F708BE29811FBD9AA6BE3C8AF212BEB617C3BCE2A370BD5D1250BE589831BDE0682ABC1C24C33CB78403BE0CC20B3D38B987BD297D923C2AD6AABD4A374FBCC8BD85BD24778BBD76E440BE4304223C921C9F3C3996823DFD3B87BDAD7BFCBCA6FEDFBDD9F589BC64CC12BC0DEB1EBE3CFC6F3D66FD203B1FDF5EBEAEE6B93D181953BD71CF453DF0C91CBE936121BD768A0ABE12D473BC4C2C84BD8E66F2BD92EBEABCD975F8BC479E5EBE9229773DA2C925BD4F00563DC70FB2BD33A78DBDB7852DBE482155BC621AE1BBC14C10BEE740F83CBD92B1BD25BD5EBE1C2A073E953A763C52B6C73D9727FCBD92C8BBBC50EDC0BD6EA411BD5F858FBD260F0ABEC4F20FBCF40FB3B8E18759BE28E0D83D3C0906BDB6E9073CA921B3BD05005C3C7B40CDBD2FC101BD0BF0E2BD662219BE8A488EBDB5C284BD361482BE5885F43DFC821F3DA408A63D797411BE6B18CCBC70380FBEC1FAD43C5F8E2DBE897BC6BD5D21113DCFB526BDA2CC18BE98A2A63D05CE8B3BAB7C683DCA21B5BD5A17D0BC6A1599BCAFBE143D2ECB74BC7E6862BDEEB7F03CA1F26DBD4AEC9EBD34D5623DC8852C3D6B93A1BCE5878BBD6E3B333D26E7CFBC3A946C3D913676BC6C7C0B3DB6A5243D7B57293CD3CB2A3DF9F5ABBC10EC73BD6C273DBD1F67CCBCC24A973B09300F3D6CF84DBDBC362A3C7510FCBC9624A43D9D58A63CD06407BD65AE083D828BDBBC7E80A53D2F1D63BD2ABE14BD30EB87BC803751BDCED9E4BCE98C2D3BD514AD3D36506A3B3223CC3B914DAE3D2B3084BD57F7633CA662773B504F65BDDA8265BD9897BABCC0538F3D2F1B94BC49DDB23DA0D6DDBC71FA11BD9FB515BDF8DDCABC73F9683D483FCFBD6E270EBED01E57BD7BD8C1BDEAA8CEBD1710FFBC3B24213DEA5589BD2EF144BD86125C3CE8C75ABD550A8CBBDBEEA0BDF32DC8BDD5B4C4BD7DE721BD518E2EBE7B9580BDC945D73CCC4259BD1B7ECEBD794A95BD038AE9BD6337B13D151294BDDA9201BEB1A1ACBD50EB97BC0786B6BD1594A5BDAAA341BCFE0AF0BD9E877EBDD66F8D3C061BA8BDBA5A263D4E67CABD93E48EBD5ECEEEBC900301BEA38A10BEA3D011BE6699DF3C7090D4BDBEBC8ABD16F066BC505DE1BDF8DD933D60E0B0BDFC20A6BBF53DE83CA06A0ABE7B1E61BDDFEA90BDAA061C3D328801BB70E0713DC72D883DE66F86BDBE64BD3D922F433CC676573DB0EC773B1AF5D4BC15754BBC9A81013D691C7B3D4194703DD00C843DFCC6F13CAA9CB3BD5A76D13D6A05C43DD194F9BCE2530CBCEF36F7BC6AB1843DB2518A3C8775193E9F04023DA474C13D6BDBBD3D4B81D03C95EA2F3D3AAC373D3ECB65BBB737523AAD4D8ABB4CA2ADBBD73058BDD70DD33CF4C17C3D56B311BDD1DBB53DEA02FD3BF401693C4789F9BC799D6DBDB8F267BD7AD796BDB1D55ABD5F72CABDF3BE98BC4E5E83BDB96A4DBD062793BD8305783C40A7B93CCAC403BD1F61B53C66D2CCBC40749BBD0E0B6CBDF41003BDCEE67A3DFAD35ABD43F1D5BD4506553D93EA53BD1BA0523C7039B2BB643D48BDB208DFBCF57BF9BD5A8A903CCBA947BDEDE0373D1BEE9D3CB6B2E1B966EA653C02E421BD4D07663CD7659ABD40BF34BE438EEBBDDA8CA3BDCEE7D13C6280E4BDF58E0F3D142426BC845D13BEDCE702BD99B4A4BDDF05ACBC0BFE2EBE1A3F08BD9A5ACBBDA7EB54BDDBA83EBD0F8DF5BD4BC6BE3C860D37BE781F82BDB60B7ABD755FA9BDFDAA6D3DDBC599BD511337BD3B3353BD89B755BE017BF1BD05D41ABEC0EA9EBCE90303BEEB1D80BD2D6C73BC9DCA37BE6A2C493D5340E9BDA9EA4DBD04F856BDBD3C1FBE2CA6DDBD1AD4A3BD7116FB3AE824E2BD282137BBBA9EEB3C5FC045BECFDCC33AC29F67BDE07EA4BD97AB5FBD8D429ABE5BA32FBE269B6CBD19299DBD295454BDA0B3E6BCAFF010BD0C051FBECCA0BDBC24AEEBBD98F4EEBD036773BDF46E2FBE76D4B7BE9875A0BDA5D2C3BDA772BABD7BAD79BD82F293BDBEF0D7BD0CC0103D7F6B08BD892A45BA5BA3983D8B7295BD85F4B9BDFB5DB5BB859A363D60DDD93C2ADC2C3BE6D89E3DBCD416BD717ADB3CC863C73DF2838C3C2929C93D04AC84BC841A823D07F7063D917A0E3D8B4DEA3D8876573DD9F2383DCFC36D3DF87A6B3DE0189E3DF7E126BD01A7703CD6AD923DF6600F3E4DD4B63DD8079A3D3F6EB73DD745673D0EE9F63CD783D73D09D6A13D201E9CBCB3580F3DDB7CECBCF948E7B9D210353B6B65E8BBE0CDA93DA5A3F6BCC5D372BC880C913D32F1183DEF5BA33D9D56043DC89F62BC924CDC3B1EADB3BD4C88163D32E6993D66F7B43D5B5B34BCC76B073DDF8A833D5966E13B8401943D86818BBC7EF12EBDF2FF7FBC1382B4BDE2A07F3DCA799A3D865D853DCBDF773D3015173DC1A1D13DA6292C3DBCDDBC3DCF6A743D44A1D3BDA6A4D3BD710F6BBD87C07ABDE892A53BEFB3993D6E65373DB07409BE5B31063D9DABC8BD45EA47BCBAABBDBD72800EBEFAF10CBE71F731BE1694203DE9D5FBBD9A68403CD4B3B1BD698927BE1D9298BD1E4E35BED8DA0EBC70D041BE911796BD0A107CBA17DF89BE4F554CBE4D34DABDB5F9D73AB792F7BD947B23BD47FFA7BD1A18A9BE214A773CCC3BC03C81651BBDDA85673C0DF384BE91D5D2BDA15FBFBC8631BEBCCC7AA1BD1199DF3C6B757B3C518B9DBE476560BBA010DE3B0935F8BCD73319BD568C82BEEE07213D3FC2EEBCC698B53CB45031BD23B1993A5039C0BD982DE5BDA08E9B3D5F43F03CCFE3A3BC52AB13BDF842C8BD904935BCE7E7B63B29D54EBD3F95EABC17BD94BCF6B210BE89691ABD721784BBFC53203A81F0ACBD5C108C3BBADD7CBDE72613BE74FC75BDBB5EA7BCC6C2A2BD64AC2F3C6664CC3C8B98313D1BDF82BDBF90E6BCA5B3E3BC419AB9BC0420E93D760B0BBED6947B3DCAA1E03BED7E6E3B74CC91BCB12B0F3E84CEDC3D06D518BE16C47B3C99382EBD00F8103DCFF3123DB8AD9D3CF0DBF13C463BA3BB7AEAB4BCF1F46E3D0C388A3E065FB53D124D81BE7F966B3DBEE3A6BDC7743B3D49740A3EF14D963DC1B8B93D46E7B93DBDC0F23C14E8353DE365973E90C21C3E0E8281BE4771AC3D5F07E6BD4AE06FBC79AB133E2B1E573D3AFF0A3A82D8003D5A0DBC3CC685303C1E66C13ECEE14B3E2FB232BDB959723B163081BCF06F1FBD26BF3F3EF36527BC1AAE6DBCB55F593D7FB337BDACA6B03B75895F3EC6897C3D20B0543CF52DB13D6487B63C51C9033DD962FBBB1025D83B56F3B83D03BE063C108BDFB8A1FA3D3C565AF83D2686983D32D9C13D4761963DAA3D2EBE6A1916BE60D622BE4145EDBB4306B0BD01DEA43DF06397BDE8FD1ABEE58E75BD429738BE798265BDE9C7C3BD7DFE1ABE191C5EBE99991EBE48CE0CBE96086BBEA3492D3C024E74BE5150BBBDA4FCABBD7A0E29BEF38D53BC63734EBE44EB21BCA01697BCC7632EBE83E188BDBC1E30BD020C26BDDB2ECCBD351DBBBDBF34A2BD317E99BE52D2BE3C1A5593BBE98FD53DB273673D91EF6CBE24D24CBD0DE918BD30C1A6BD6A38E83AF886C0BCC64A85BEB01A62BE6A3E073DECAA793D89A2A83DE0C50C3DD8D4FBBDFC5BA53D2F434DBD8E1797BD1E5173BDCACD09BB362F6CBEE045CDBDE6C0D93C8D62D33C8141EB3CACDF48BCE19CCABD37A58A3DE59E083DAD0022BDBFD7843B42CE273DA04F43BEADD43A3C57CE353C33A5153D4E3B8ABD2EF6153C90426B3C9B258CBD7A27F5BC357439BD713A95BCA32525BCA1A8B6BDA9DD7B3DCE383BBED10921BD53106ABDCD2A68BD3FC3303E8A2D95BE0F4D72BD3596E83DEC40F7BD8DA59FBD2B3D10BD4E19D13DA4E0CEBEE4BBC53B51A5E3BDFE8A92BD4D9D8E3E4E1883BEE87A26BDE2283F3E363503BEB5BF07BDB8BD1E3E7080873E22371FBFB39CA83C704DBDBD62E7963B641B583EB58B29BE5E21A13D931A503E1CCBB6BDF74B89BC1F99C13EF3F9613E272B29BFACD701BD0C79C0BCF5145BBD329E173EEC7E14BE3828D43CF5C41E3E316486BDA758043DB406C33EAE3C433EF69E16BF953A7CBDEB0505BD90B156BB59071A3EF3FBB3BD63A8CD3C0A6BB43D63F36FBD02C6A43D4973AF3EB2CFB53D22269BBD9AB0793D9B064E3D206EB23DB3EA123E7B15A93D2955E33D0FF41B3ECC27FE3CAA273B3D3DF48A3E5D420D3EC62C593DEC7C0D3EE14833BE5D4730BE8F424EBE8427EDBC390667BE1C80833DEF902EBE0AF554BEE24FBDBDC50039BE9DE2A1BDC2F13DBEBFB90EBE630D05BED6525EBE924A35BE316CDCBD1A87E9BC7FD88CBEEA6D89BD997C6ABC45633EBE2D5EE2BCB93885BD888BA13D0C2DDD3CE2EE7FBE3F2D15BD6D3744BD708036BD8FF1BFBDBD45463A05B6D5BDEC463FBE3D17DA3DF990ED3BFCFC3D3DB0D4183DB2048DBDC409FD3CD89C253DFD1FF1BD652BA2BDA5F3C7BB40A38CBEE47DAEBDD045A43D7EBBD73C72BAB23DBB5D913D07E786BD980CD43DB6069FBB7B0586BDDD788EBC4D47E4BC9B347ABEAB3328BE953F853D44D6E03CAC8BD83DA795B8BC192C5BBD50156B3D31970F3D2F93DE3C02E639BDD856BA3CEE105DBEF91A21BB5844473D7DFD6C3D7A3FA6BDFC27DD3C925C933BB1DD40BD553985BDB0EB123E01CDB7BD78092CBD8B63AEBD616DA13DAC1812BE1CFF88BD3064F9BD029CACBDD27AF13D8AD3C9BE462419BE7F607C3E27962FBE852FAEBD4FDE2ABE1C83E83D6CEFFFBE1D5024BE194E8DBDC5E3D6BDB08AA33E4446FCBED37239BEDD65933EEA23A1BE2FEB06BE7F1F31BE2962C83D81292EBF61D3D9BD806CB3BD7C3A2EBE749E6E3E7558ECBE7BE1A5BDA908A23E79EF54BE511A07BE2750A43C0912233ED6E149BFCC6218BE0A2AA1BDF601EDBD4AD2063EFF46DDBE3298AEBD1DF28E3E2E6C4EBEFFBE46BD4AC1EC3DCBECD13DB18204BF2C050BBED1875D3D90B870BCA1B05F3E487930BEF44609BB0E04C43D2A0704BDF8A68C3DA188B83EA5300C3E451B6EBE0173DE3D9590353EF639043E372E2C3EF091ED3D537F2D3ECF11FF3DE832153E53F13D3E179E8E3E3431383EFE351BBD9D56353E3BD6E0BDDD692DBE67A538BEB7CB66BD06F10CBE37E69B3DAE7CF4BD0C00FBBD087799BB46355EBEFD061A3D42D5C6BDB6BD3DBDE11ABBBDCC78EFBD955620BE695A18BD53B563BCC9D0D0BD2F5F93BD4E8A0ABE09F306BE08737F3D15FEDA3C2AB9CE3D03DCE3BB6EF35FBDD59346BDC85AD2BBE23E51BD2FF2ADBD320E323B152354BEEBBB7CBDDD202A3DBEB66B3CC8D9993DA888CBBCE035A7BD0D1ED6BDA38FE0BBEB3E20BE388306BC0B24773C48D189BED14133BDFD995A3C3C548EBB6EBD283DAAC491BB8278943AD054AB3C68BC763B425EB6BD6EE205BC9F4B6E3D7B2742BE1E690CBEE6C8D13DBB11DABCA10F9D3B5FE9413DDD691D3D29BA803C3C96793D3CCBFFBCD5D64ABD04F513BC96DBFDBD0E865BBC32FA683DBF10B33C99994F3CEAB98A3DC457C23DBA496A3A8152383D76AE563E6FB364BD8278383A3BD6A7BC2C4A263E9CFFFEBDFC8460BDCDD18FBCE2BFB7BD0BB6753E29BE7BBE5A9BB3BDB444993E6B6008BE10299ABD94C500BE9090143E9E9EBEBE5F390FBE1F488DBDC2EF04BE40D1933EE5E9CDBEAE6B4FBEF364833E74BC90BE215A07BE924352BE14E71A3D61BCADBEEEBC09BE6CFDB9BDEF0522BE5A42B93DED90B7BE42F276BEBA84913E60B27BBEB29014BE080F5BBE158292BD73D3DFBE900CF1BD4E76D5BDA13526BE1491D13D4DF8E1BEEAD051BE6D8B9E3E310C7EBE8F5B4ABE3E8338BEEACE78BD5C2FD0BE748688BE7632DABD579F14BE15D7173EC403AEBEB268A9BD79743D3E57F240BEC0731CBE9BA9BA3C5A19963D6B4BDFBD2665F9BD80B7363ED8DBD83CD24B5A3ED86F36BC0840A23D54807C3C7434F13B8BC856BDE331853EEB272C3E2720933B9518BF3DAE23DCBD9E8F04BD14ACBABD8082FC3C13F6BFBDC068863D7FAFB5BD809E08BE34D6C8BBC6EAF9BDA2C5833CEAE2C3BD7E9A2ABD8A13E6BDE9C6643D16C15DBE8A4F11BD05A1163DD17161BDE38E07BD5F13D6BD3772823D255D8DBD432B36BD5DAFC9BC9263BE3AE065363E2C1F5ABEDE7666BD14BE83BD7177C6BC5B19AFBCAFCD64BEF83CE63D0631BEBC33F390BD3B69EC3C021A49BD68C9DB3D0FA412BE2349C5BD4AE0FBBCE0C7D6BD154138BDCA1187BE14D1803B009E93BB8F5473BB1053953D0CA4ECBC2FD87B3DD64539BDE68DD03CC1CC71BDF691A4BDD97E03BD0C7839BED058A53C3C60823D8F5CAE3C97A4933D37EFB0BBB7F8D23C94AC89BC0B29553D4961E83C985C27BDC65C293D6CFB1ABE8BEB8A3DCDCE083D232E2D3D2C810EBD6410BE3C8A16033E3FF026BC31C6B13DED92243E44A21C3CE7247C3CA1BECBBD8C01CF3DD806F4BD870D023D712646BC3E7D90BDCECA783DE3AE01BE7C260CBE9FB2573ED63A1BBEFF18BBBD831143BEDCF4063DAD6D73BD5F1912BD25C5D43C890DEABD5742593DB61A5ABE531C28BE79E46E3E89B24EBE4860C6BC81C983BE78EC06BEC5B0713D09A206BEA4434CBC8B7EBCBDEB4DE6BC277A52BE86F00DBE9D78163E4C8537BE1C21CFBD2093F4BE188B2BBEA68033BDC7B4D6BD94ADD9BD9F0811BE8278B9BD694A56BE3CBCB7BDC7493A3E7C5E35BE684723BC2B70A3BE922AE8BDB3CD02BEF92719BEAADFA6BD600F2BBE5C6C45BE4B254FBE514D4FBE5878283E261B2EBE6A8AD8BDAC4613BEFD2E8DBE9A0E06BC43813ABE845816BE06E1CEBDFD83A9BD78F231BDB3E401BE50FD823D764A0A3C5849D6BC5B755D3DCFDB98BDBF8B853D5F9FFFBD7E238DBD30F3CFBD9C5C16BDB4AD7B3DD04B9ABDDA23863D90F3D6BCDC43AFBDEADDBE3CF98EC5BD7B6E51BA3B1C85BD8CEA9FBDC9842BBD3F4B853C00E228BEAB77C6BC836DDC3DC8BEC6BCD5EDC4BD37C609BCAE5FD63D5539C7BDE2E2C5BD0EDB82BC308AB2BDA27B0B3E4DB047BE67F70ABDCD93933E4CFD26BD81408BBD48CA9E3D177D083EBF17BFBC1023C1BCBDEA2DBDE390D7BD6D6A743E0B4A82BEF403EFBD0FF88A3E4C5C09BE5C628BBD4154BEBD62BBDB3D9422533ACFD84CBD8AF6B7BA811DC4BC8166433EAA9D3DBE3CA9D6BCA2E2583E106191BD7ECED9BD91E7B7BD5BAE383DA132BC3D5DB81DBDE1E4913CF411073CD5B2D03D496038BEAB6081BDF52D343EE492EFBD726C9ABDE12C8CBD21AB5C3D495EAFBD99200BBD627B7F3B1BEC91BD20F46C3D112483BDF09203BDB6A8563E91C3EABD1018FABCBEC406BD5084703D05AD3ABC749497BD040DFEBC640177BD700271BDA1B91CBE598DF5BD65D9E53D022706BE7A0572BD26C405BEBED497BDD2792EBCC5F076BD084A093D01F59CBBD24994BD2E8AABBD7DE20ABE48E3D13D0B6713BE2D4F823B28DD84BE168348BED83DEA3DD3AF0BBD3D3726BD2E843CBCB72D09BE2B6304BD9C61B2BDBB74403C8CD9AEBD11AEFFBC2C39CEBED82116BE7AC48D3D32EFA43B1CDBCE3B95FA4ABD37306FBDEFD5DFBC0A08553CD09ED53DB15ABDBCEF453DBDB49693BE68E1D3BDF2E7AF3D397ADABC5087843C8E7F8F3C4B4763BE01B93DBDC539DBBC867CA73D44B880BC4E1792BCED579CBE9E8A28BEA216D13DD3921FBD8A6B0BBE029C50BA888101BEF6118BBCA0F638BD6A8AF43D020504BDF6149FBD03C1AABC2AC0ECBD8D67C73C7B602ABEF40977BDB35CA5BDFA4E5ABDE65C6B3C4C88A2BC3E4CA63D1175AABDCA46EEBCF31A0CBCF70495BDB1E5103DBE8BA9BD8D99CCBA46048F3C0D52AA3DE61B45BD290539BD9EE0E93D0358F8BCB47F453DDB1EE93DE66FD93D93A9B43CCC20893C69AE253DDD302C3D5E24F53D792741BE5604B13C40FB7C3E41F2AFBDD1901ABBC220213EC1D9083D7C23B6BDD1E7693C94E490BCE9BE22BDA1CDF03DDC9875BEFF278EBD0764A73E096ABDBDAABAF1BCB6F4E03DE5CD053EC4B1CCBDF643FDBD4E1B3A3C032135BDE430503EB7C893BE8B8C14BECC60B73ED7B404BEE083C1BD27D1C73DB8FEA33D671D0DBD29BFA5BDB06A0FBD6891B7BD1BA7E83D9D364FBE687B03BEC4E7B43E50CBBCBD9DC423BDAA1E1A3EB58721BACEE1FEBDCB01FCBD9123BCBC61B346BD31FB673CCC98D9BD67C262BD80162B3E794FD2BD406615BD4FA5053D6257A7BCC1598F3C0646CEBDFC4D89BDA7D8CDBBE6055DBD7ACCC7BD426074BDCF0CA43D4E76AEBD8A9F333C7A50C7BD784532BDC75EE03CD5406B3C4C4222BCC998A23C09D9E9BC472EA13B1D0104BDBD2DEF3C430AE13BA224C2BC2B992ABE53C102BE1526AF3D994F18BD0BB0EE3CC80A103D6B6CFCBD1F77D13CB2D628BCE55AA0BD644D53BD5AB00F3D4FB65ABE991395BD4B14343E062E83BD2CA3773CC4B5A53CB1E70EBECBD384BC64BF053D0588CEBD9D442FBC119A7C3CC31B0CBEFBDF08BD0666333E599A03BD4950CB3D2EE81E3C1356EABD43F4B13B5E20893C25052BBD4898B03C9B2E633DB7A23BBE46C5F5BD92F8203D93691C3DE832BCBDACADE5BB084519BEB6EAD93C3023A63DB3A7DC3D3C18993CB6732E3CFA0930BC7C1487BDE09DD13DF045C8BDB6FD47BD3A4A6BBCD3D297BD1E6E1A3D9E11E0BCF493C43DC3A4DA3C81EF8CBB411C9CBCF3CF3CBDD8EEE0BC6BB7693C1CD7953C5F4C5DBD1B5C763D07823BBDA2B58439371ED73D2E407D3D75EDF4BC30530B3CE016A03D4B83C1BC7068EDBB47FA313D5A19313D68310D3E2577BBBD43CC19BD37418D3EE2F293BC9407543C484A083EB26ADC3D27EC32BDD4115B3DF28C803BCEF9BCBB99121E3E2A8158BE24BC7FBDC2DF813E6DE208BE1C5DAC3D1827A73DC103E03D25AEFDBD1EF0D0BA5476E6BCBB1940BDC98FB73DFE1499BEC6FF97BB9A175E3E69AD82BDD631663D235D323D89E503BD49470ABE68F0DABC002448BD39F357BD9B1659BD365058BEE982AD3BEC311F3E419A08BDD10E813DDAAA0B3E8654D3BD9C7D37BE99FFCABC0F06E3BDC73BC2BCB9373CBDFF72FCBDEA2E5DBBC7E8093EC5EAF03B4493A4BCD475E33C120B43BD5BF9EABC2EC942BCF2B2EABC10A683BD1160D8BDF4699EBD80633FBD0E571D3DAA179ABC582500BB3460743DA73881BCCF2138BD106E80BD4CE4CE3C90D792BC922195BDB871AD3CB72808BCB99F4DBC778F923C9167E33C7DA58E3D9B5E4E3D6CB6E33B51FA98BC187918BDF3FDEABC7B5DBEBD4F6C22BD3B922D3D55D0E2BD6209E23CA2958A3CA81B3A3AF5F3CCBCE3A9C23DA53B083D8C6D4EBC6C127A3C86B918BD470B5C3C66BF693CACBC97BDBB14393DEC13E83C606B39BD00D3123D5D6B083E482A2C3D2A046B3CD992543DCE4665BD073F923D0A4BED3DDCDAD3BC52CBB73DB937CC3D2E383EBE0E2C8FBC4BEEDC3D8188243DC885B83A6F33BB3D94D1B5BD4027B53D803E473D8E5C8B3DA3B400BDF7DE323DDC702A3D9F05833C8B60823D8FA23C39A66034BDE36623BD3D239ABD7889ECBB1827A2BDFA82253C5AA1E8BC0080CFBDDDEA593CE4B6E1BDCE04713D9BD67EBD1AE9B5BC28E5E83C020578BD770C1DBDF9CC56BD721E533D5A0A25BD0587E43BE96B413C2CF925BD4D02E5BCD4BBE3BC4E2752BD7859B1BD1822FDBA989B4ABD49602FBB70536D3E3877253CCFD492BDD318E03D7FBD4B3D076C24BC68C98DBDFB2968BC88B8833A1916A53DAD2B11BE8711C1BBC403363EB27BBA3C73359D3B60292E3E1CA3E23CBD7E343DFFD6B4BCD4FA023CDB396ABC76E59E3D2C65FABDB3121F3DE77B333EFE5A613D4A38883DE2752C3EBD759B3D9640ADBC36E2CC3CB00017BCC8380E3DD0A3DA3B453A2DBED68C92BC0388283EBB3E08BD1856AC3C06E11D3D295EA63D097303BEDC6F913D916773BDA4BA9F3D58812E3CFFF0D0BD12C90D3DDF2C853DBF5F39BD255D2D3D2F9D223D8F13D83BC74941BEF1BC013D2E0DF3BC72C2853DF814ADBCA84F57BD7AADE23CD1C8A13C8AC2BF3CDD939C3D874F54BD79FCC83C43922CBEC477683D9D182CBD7A6347BC2102C6BD9CC5533D7C788BBBC52E75BD19FBF83C1720E53C3A28813A386392BDC20692BD1FB0C13CD0B310BD0B8F6E3D181D84BBFF30863DC2787A3D62DBC3BCDE2904BCC451463D2206983B10533BBCC06D643DEBC261BC2233CBBB6F470D3DBFD06EBD1AD5143D9D25D73D78A325BE05F6C33DC754223DCED96E3DBC15C53C0DDE8C3D7C83E13D0F90813DF1EC873DE4C9433D42CDA13C45E6063EA0320EBD56B2B73D77ED923C654B6E3D0F85C63C033AA43DECD9D83D795A233DF276D63C20AD97BDFC774D3D03AE6B3DA25C8C3DADD0003D09275A3D18938A3C32E574BA22F0C03DBE30863D2387AE3C5DF8CEBCC57F5FBD3684B33B2B555CBD84F7B13DEA86DCBD6615153DEE16973D27D6A3BC9C062F3D1D609EBC0ECB0F3DC28141BD44423DBDE3A21FBC961726BCED029E3D0B56033DC016E9BC9ADE1E3C0825BCBDDD485BBCDD081A3DF5B057BDB33854BDBF4DEABD19334BBCCB15C9BD2FADC83DD95C2BBD796A6BBD940CBA3C9A8305BC251C4CBB5F34CABD9141DDBC9BA90EBDA397553D86410BBE98C589BCDD565A3E455FCEBCF27F973C553ED43D57D157BC1777423D652D91BC164C933D0443723D1BB33F3D7FAB24BDE6EF083D010D523E234CD2BC03F69F3D683D943D620E0C3D2F568E3C5D9FB43CE276E83BB17AB23CE61FA13D278E163C925FA93C729E3C3E76852E3D6042B03D31FB7A3E5655DC3C0B0AD0BC8F97813D34FC753D7686833D4F5F9D3C8934133D95023DBC10A6063EDF47BB3C7F3EEA3C2F44983EC3CB943DFF74F5BD9F4D063D31A88ABDBA0C4C3D9E9B413CBA636B3D2842063DF655943D3A09693C0E19BD3D138D543E6795EDBCD960E7BDA6C311BD9756D3BC3CCCB3BC5D1344BD62B4603C0CF70D3DEA3AC43A44C70F3A7E50E53C8DCBBC3D4FC8A1BD2206EDBDFE68D4BC93B2DCBB1A3328BDD55B89BDD842043DE44717BC87D373BD478B823D26EC6DBBB57D5F3DEC8263BA8FE3BFBCBA65EFBCECCB65BB4579493D741C00BCF806133C92F834BD4954AD3C3B828C3D67A1C43C0D23E83D755865398A448F3D519C8ABC400B0C3DDD37A23CD433143B9E1E43BC94AE1B3D6E71503D93D5933D46D4803D10684B3DF561093D760FFD3D15842EBC75B403BD88EA833DC8C31ABD01C33D3DAEA4583D970AEA3C5B691B3CB028AD3C1862443CA402053DF5FED43DC29CAC3C0FA0523D26E0E63CEE8014BD2D59B13C813373BC4BE2A83D9C96113D7C70893D3BFEF13CE2CE09BD6500E93D391D513C747A56BD9BCD79BD3796CABD64CD0EBD1A5838BCEDFDC83DA05A8F3C37B975BD55F28DBC1127E6BD3D92823DCB0DA0BB1B1FBCBD68DDE6BDF3361DBDDB244EBE4104EABD263EFF3D297ECBBD46BA1CBE3773503D3929ABBC3B9E81BB5571C2BDC17593BD457413BECB346D3D6A4FD9BDC1E7ADBD7A04B53C4C88D5BC2E3A18BE02CCB73C0B7E59BCCF959D3A5C28A5BD0ED2A83C4FBE8CBC108C8F3D44B013BE5F42FBBC40BDF33CE04A4BBD2583B0BC2BDB5A3D629D4E3CE4EDF0BB3619E4BC00DDB33CE45C883D8C5B053DC0718FBD3B988A3CE231093D15D31F3D997A4D3D9FCAC3BC1EBAE83D74BCE6BC62A9C83CF288CE3D38EB9B3C99D1973D9D022E3C148DC63D86095B3DFFE2EB3D3E15F13C89E3B63DEF38093DF77658BDC007733D832A3E3D37A938BA54B84A3DDA7B213C78C3BF3C7CDE8F3DBFB6EA3CD8E5913D87B2B33DCC80073E5F8273BD9285493DE9551E3C728A8CBB29F8753BA9C29E3DEEA0873D08BF173DBC51CC3DCFE38E3DE5B6083D6B40633DBA93A8BDD4F8A63CB303E83C15823EBDBCC744BBEB7793BCF86A8B3BDF6AD23D04A193BCC5BDA63C41CED43D1B04A43DA5174F3CC897493D5110AF3CF111003D3F6FFF3CE32BE1BC567389BB63EAD83D28D91F3D9DCF3BBCCE9B4E3DA8F5BBBB378B333DD5AF62BCB818033DA866BF3D681FAA3D005AA53C0715E93DCCA9D43D4941C73D378D4338CEFB143D16C6EA3BA0A0D53D10BE643DF30884BA49829F3D3F1A883D294E073EF048CC3CB59D673D38D2323CEBD06F3D6F968D3DFDD8E3BCCBB9933DA7F3FBBCC4FBA23CDE512B3DB7417C3D4F6F11BD5B9090BCA77E2BBDE193EFBB5C7AEBBB41EB06BDEA832BBCC3D88ABD19C743BD35E2C93D9232A43D8BE8203D0AAC07BC9657FC3C01AF3CBD2082F2BC8ABE1C3D10667EBC6527B63DC27EE93C8FB6073D9D944A3D432D323E7EB9B03DD5E3683B24F2C93D744B8B3CF2EB5ABB63F8173EA143943D6428A53C0C50663D1FA8C03D1B1A2E3E896CB93D3C29413D60DC043E876D083EC81D573DC06BD83D5B50283E30B0CA3DCEB2823DCD258C3D2269CF3DF70B033E7CC6023E32B8FB3CBE93353EFF54323E6E908D3D17E5113E47FD5F3DCADB7A3DDDE9BB3D5C7EBA3D1626B43D78B7383D2C7DED3C7E0AA73C60BFC63DABFBF63D644AA83DC542AF3D91BDCF3C9DB10F3A087EAB3DCEB59A3D64AB1F3D1AE60B3ED294BF3D8FABB5BDCDE2233E3816D63DA691703DC798043DBCC46A3D63A10BBD840D133DEF460B3D3AB59A3CD557A03D0E08F9BC04D3CDBD5C35163E206E833DF6AE3A3B2351BB3D020835BD10046ABD6F6A32BB3E7BA23D0C1BF3BBE27BEB3D2354493DD35C723C26200FBC7F98F53B4656F43CFD9ABC3C5105753D9B057F3D4967563C8C52253ED763AC3D8E28113E29F6063EBF71353EF7809F3D7477013E4083B93C9AB6DB3D74769E3DB12A913DEF7B3E3D122B173EBFAF1A3EC657063EB225173E77F6DA3DD0038E3DB459083EA54F473D3272283D88701B3EFD38E83D3BCBFE3D23F0D53D8481113E89EEB93DD1C2BC3D7EC11D3C5E1A2F3EF6A0B33D4E9FA23DA5A0D13D4780103EA11E1A3E12E4E83D27FE88BB2C8E363DEBD2763C64B050BCADE560BCD492183DDAF29EBC234B4B3DA2BA873D33732B3B3B563B3D879F823CD44581BD7E8E6C3DBAEE29BDE4746EBDA33A46BC2F26F3BC671093BC7EEAB63C01F90D3DE09F06BCFFE6A2BC8770763DC8F907BDE06606BEAB02753D7277873DCF5FD43DDBE7DFBCD92612BD518A2ABCDD1131BD180C1CBD3869493D564B153C9E3A863A2F7452BB8CB2323DBF7FE03C189D1E3EA0A6DE3D0B40443D9BCA133D8CC5143D06BF533D8F0D243D6251AA3D90B2BE3CA57B00BB0562B93D12FE803D8307AFBC6FFF043E25487C3DD4E96EBD27DE0E3DCF520D3BEA3299BCBDDA00BEDDA2E93D5484B13DBC710CBD62B0BE3C433BB8BDF70D933ED06D883D38AA14BE6780953DF8E9343C53D8EDBD656AA2BD2F3CB63C0CDEB13C1C30B1BD0EFC41BD9A602ABE280B463E2EA17A3D167144BE7D56B93DC168E2BDD1C40BBEEC3FC0BD31FEBBBC5267F1BC5FE5F0BCF97D84BDFCC839BE725B063E282F82BD804928BEB96A993C5057D1BD686919BD64BF8ABDE878CB3D4C7F6BBBEAEC91BBF21E13BD57CFD0BD7D01BF3D0FEC183CAFEF13BE046DD0BC10C6C63B73DF67BD1DBB4CBB573F023E3EDE073D4401543DD2BE943C05EE8CBD9DB1113DF7CB973DDEB408BD32E5923D628DBD3C0C51B03D0EA4983DE294E03D9151C53C9A33013E2180FD3DB49FB9BC17B99C3B6EC12D3E417B1D3C644FD63D2B10A73DCC9AC33D1545253DB820CD3D5B